{
  "version": "1.0",
  "truncation": null,
  "padding": null,
  "added_tokens": [
    {
      "id": 0,
      "content": "[UNK]",
      "single_word": false,
      "lstrip": false,
      "rstrip": false,
      "normalized": false,
      "special": true
    },
    {
      "id": 1,
      "content": "[PAD]",
      "single_word": false,
      "lstrip": false,
      "rstrip": false,
      "normalized": false,
      "special": true
    },
    {
      "id": 2,
      "content": "[CLS]",
      "single_word": false,
      "lstrip": false,
      "rstrip": false,
      "normalized": false,
      "special": true
    },
    {
      "id": 3,
      "content": "[SEP]",
      "single_word": false,
      "lstrip": false,
      "rstrip": false,
      "normalized": false,
      "special": true
    },
    {
      "id": 4,
      "content": "[MASK]",
      "single_word": false,
      "lstrip": false,
      "rstrip": false,
      "normalized": false,
      "special": true
    }
  ],
  "normalizer": null,
  "pre_tokenizer": {
    "type": "Whitespace"
  },
  "post_processor": {
    "type": "TemplateProcessing",
    "single": [
      {
        "SpecialToken": {
          "id": "[CLS]",
          "type_id": 0
        }
      },
      {
        "Sequence": {
          "id": "A",
          "type_id": 0
        }
      },
      {
        "SpecialToken": {
          "id": "[SEP]",
          "type_id": 0
        }
      }
    ],
    "pair": [
      {
        "SpecialToken": {
          "id": "[CLS]",
          "type_id": 0
        }
      },
      {
        "Sequence": {
          "id": "A",
          "type_id": 0
        }
      },
      {
        "SpecialToken": {
          "id": "[SEP]",
          "type_id": 0
        }
      },
      {
        "Sequence": {
          "id": "B",
          "type_id": 1
        }
      },
      {
        "SpecialToken": {
          "id": "[SEP]",
          "type_id": 1
        }
      }
    ],
    "special_tokens": {
      "[CLS]": {
        "id": "[CLS]",
        "ids": [
          2
        ],
        "tokens": [
          "[CLS]"
        ]
      },
      "[SEP]": {
        "id": "[SEP]",
        "ids": [
          3
        ],
        "tokens": [
          "[SEP]"
        ]
      }
    }
  },
  "decoder": {
    "type": "WordPiece",
    "prefix": "##",
    "cleanup": true
  },
  "model": {
    "type": "WordPiece",
    "unk_token": "[UNK]",
    "continuing_subword_prefix": "##",
    "max_input_chars_per_word": 100,
    "vocab": {
      "[UNK]": 0,
      "[PAD]": 1,
      "[CLS]": 2,
      "[SEP]": 3,
      "[MASK]": 4,
      "!": 5,
      "\"": 6,
      "#": 7,
      "$": 8,
      "%": 9,
      "&": 10,
      "'": 11,
      "(": 12,
      ")": 13,
      "*": 14,
      "+": 15,
      ",": 16,
      "-": 17,
      ".": 18,
      "/": 19,
      "0": 20,
      "1": 21,
      "2": 22,
      "3": 23,
      "4": 24,
      "5": 25,
      "6": 26,
      "7": 27,
      "8": 28,
      "9": 29,
      ":": 30,
      ";": 31,
      "<": 32,
      "=": 33,
      ">": 34,
      "?": 35,
      "@": 36,
      "A": 37,
      "B": 38,
      "C": 39,
      "D": 40,
      "E": 41,
      "F": 42,
      "G": 43,
      "H": 44,
      "I": 45,
      "J": 46,
      "K": 47,
      "L": 48,
      "M": 49,
      "N": 50,
      "O": 51,
      "P": 52,
      "Q": 53,
      "R": 54,
      "S": 55,
      "T": 56,
      "U": 57,
      "V": 58,
      "W": 59,
      "X": 60,
      "Y": 61,
      "Z": 62,
      "[": 63,
      "\\": 64,
      "]": 65,
      "^": 66,
      "_": 67,
      "`": 68,
      "a": 69,
      "b": 70,
      "c": 71,
      "d": 72,
      "e": 73,
      "f": 74,
      "g": 75,
      "h": 76,
      "i": 77,
      "j": 78,
      "k": 79,
      "l": 80,
      "m": 81,
      "n": 82,
      "o": 83,
      "p": 84,
      "q": 85,
      "r": 86,
      "s": 87,
      "t": 88,
      "u": 89,
      "v": 90,
      "w": 91,
      "x": 92,
      "y": 93,
      "z": 94,
      "|": 95,
      "}": 96,
      "~": 97,
      "": 98,
      "": 99,
      "¡": 100,
      "¢": 101,
      "£": 102,
      "¥": 103,
      "§": 104,
      "°": 105,
      "±": 106,
      "²": 107,
      "³": 108,
      "´": 109,
      "µ": 110,
      "·": 111,
      "º": 112,
      "½": 113,
      "¿": 114,
      "Á": 115,
      "Ä": 116,
      "Å": 117,
      "Æ": 118,
      "Ç": 119,
      "É": 120,
      "Í": 121,
      "Î": 122,
      "Ñ": 123,
      "Ó": 124,
      "Ö": 125,
      "×": 126,
      "Ø": 127,
      "Ú": 128,
      "Ü": 129,
      "Þ": 130,
      "ß": 131,
      "à": 132,
      "á": 133,
      "â": 134,
      "ã": 135,
      "ä": 136,
      "å": 137,
      "æ": 138,
      "ç": 139,
      "è": 140,
      "é": 141,
      "ê": 142,
      "ë": 143,
      "ì": 144,
      "í": 145,
      "î": 146,
      "ï": 147,
      "ð": 148,
      "ñ": 149,
      "ò": 150,
      "ó": 151,
      "ô": 152,
      "ö": 153,
      "ø": 154,
      "ù": 155,
      "ú": 156,
      "û": 157,
      "ü": 158,
      "ý": 159,
      "þ": 160,
      "Ā": 161,
      "ā": 162,
      "ă": 163,
      "ą": 164,
      "ć": 165,
      "Č": 166,
      "č": 167,
      "Đ": 168,
      "đ": 169,
      "Ē": 170,
      "ē": 171,
      "Ĕ": 172,
      "ĕ": 173,
      "ė": 174,
      "ę": 175,
      "ğ": 176,
      "ħ": 177,
      "ī": 178,
      "İ": 179,
      "ı": 180,
      "Ľ": 181,
      "Ł": 182,
      "ł": 183,
      "ń": 184,
      "Ō": 185,
      "ō": 186,
      "œ": 187,
      "ř": 188,
      "Ś": 189,
      "ś": 190,
      "Ş": 191,
      "ş": 192,
      "Š": 193,
      "š": 194,
      "ţ": 195,
      "ũ": 196,
      "ū": 197,
      "ů": 198,
      "ų": 199,
      "ź": 200,
      "Ż": 201,
      "ż": 202,
      "Ž": 203,
      "ž": 204,
      "ơ": 205,
      "ư": 206,
      "ǎ": 207,
      "ǔ": 208,
      "Ș": 209,
      "ș": 210,
      "ț": 211,
      "ȯ": 212,
      "ɐ": 213,
      "ɑ": 214,
      "ɒ": 215,
      "ɔ": 216,
      "ə": 217,
      "ɛ": 218,
      "ɜ": 219,
      "ɡ": 220,
      "ɢ": 221,
      "ɪ": 222,
      "ɫ": 223,
      "ɳ": 224,
      "ɽ": 225,
      "ɾ": 226,
      "ʁ": 227,
      "ʃ": 228,
      "ʊ": 229,
      "ʋ": 230,
      "ʒ": 231,
      "ʔ": 232,
      "ʕ": 233,
      "ʲ": 234,
      "ʻ": 235,
      "ʼ": 236,
      "ʾ": 237,
      "ʿ": 238,
      "ˈ": 239,
      "ˌ": 240,
      "ː": 241,
      "́": 242,
      "̃": 243,
      "̍": 244,
      "̥": 245,
      "̯": 246,
      "͍": 247,
      "Α": 248,
      "Δ": 249,
      "Κ": 250,
      "Ν": 251,
      "Π": 252,
      "Τ": 253,
      "Φ": 254,
      "Χ": 255,
      "Ω": 256,
      "ά": 257,
      "έ": 258,
      "ή": 259,
      "ί": 260,
      "α": 261,
      "β": 262,
      "γ": 263,
      "δ": 264,
      "ε": 265,
      "η": 266,
      "θ": 267,
      "ι": 268,
      "κ": 269,
      "λ": 270,
      "μ": 271,
      "ν": 272,
      "ξ": 273,
      "ο": 274,
      "π": 275,
      "ρ": 276,
      "ς": 277,
      "σ": 278,
      "τ": 279,
      "υ": 280,
      "χ": 281,
      "ψ": 282,
      "ω": 283,
      "ό": 284,
      "ύ": 285,
      "ώ": 286,
      "А": 287,
      "Б": 288,
      "В": 289,
      "Г": 290,
      "К": 291,
      "П": 292,
      "Р": 293,
      "С": 294,
      "У": 295,
      "Х": 296,
      "Я": 297,
      "а": 298,
      "в": 299,
      "г": 300,
      "д": 301,
      "е": 302,
      "ж": 303,
      "з": 304,
      "и": 305,
      "й": 306,
      "к": 307,
      "л": 308,
      "м": 309,
      "н": 310,
      "о": 311,
      "п": 312,
      "р": 313,
      "с": 314,
      "т": 315,
      "у": 316,
      "х": 317,
      "ц": 318,
      "ш": 319,
      "ъ": 320,
      "ы": 321,
      "ь": 322,
      "ю": 323,
      "я": 324,
      "є": 325,
      "ֵ": 326,
      "ֶ": 327,
      "ָ": 328,
      "ֹ": 329,
      "ּ": 330,
      "א": 331,
      "ב": 332,
      "ג": 333,
      "ה": 334,
      "ו": 335,
      "ז": 336,
      "ח": 337,
      "י": 338,
      "ל": 339,
      "ם": 340,
      "מ": 341,
      "ן": 342,
      "נ": 343,
      "ס": 344,
      "ף": 345,
      "פ": 346,
      "צ": 347,
      "ר": 348,
      "ש": 349,
      "ת": 350,
      "ء": 351,
      "أ": 352,
      "إ": 353,
      "ا": 354,
      "ب": 355,
      "ة": 356,
      "ت": 357,
      "ث": 358,
      "ج": 359,
      "ح": 360,
      "خ": 361,
      "د": 362,
      "ذ": 363,
      "ر": 364,
      "س": 365,
      "ش": 366,
      "ص": 367,
      "ع": 368,
      "ف": 369,
      "ق": 370,
      "ك": 371,
      "ل": 372,
      "م": 373,
      "ن": 374,
      "ه": 375,
      "و": 376,
      "ي": 377,
      "ܐ": 378,
      "ܕ": 379,
      "ܗ": 380,
      "ܝ": 381,
      "ܠ": 382,
      "ܢ": 383,
      "ܬ": 384,
      "ܲ": 385,
      "ܵ": 386,
      "ं": 387,
      "अ": 388,
      "ई": 389,
      "क": 390,
      "ग": 391,
      "ण": 392,
      "त": 393,
      "द": 394,
      "न": 395,
      "प": 396,
      "ब": 397,
      "म": 398,
      "य": 399,
      "र": 400,
      "ल": 401,
      "व": 402,
      "स": 403,
      "ह": 404,
      "ा": 405,
      "ि": 406,
      "ु": 407,
      "ू": 408,
      "े": 409,
      "ै": 410,
      "्": 411,
      "আ": 412,
      "ল": 413,
      "হ": 414,
      "া": 415,
      "্": 416,
      "ਅ": 417,
      "ਲ": 418,
      "ਹ": 419,
      "ਾ": 420,
      "ੁ": 421,
      "ੱ": 422,
      "അ": 423,
      "ള": 424,
      "ഹ": 425,
      "ാ": 426,
      "്": 427,
      "ก": 428,
      "ค": 429,
      "ง": 430,
      "ช": 431,
      "ซ": 432,
      "ญ": 433,
      "ฐ": 434,
      "ณ": 435,
      "ด": 436,
      "ต": 437,
      "น": 438,
      "บ": 439,
      "ป": 440,
      "พ": 441,
      "ภ": 442,
      "ม": 443,
      "ย": 444,
      "ร": 445,
      "ล": 446,
      "ว": 447,
      "ศ": 448,
      "ษ": 449,
      "ส": 450,
      "ห": 451,
      "อ": 452,
      "ฮ": 453,
      "ะ": 454,
      "ั": 455,
      "า": 456,
      "ิ": 457,
      "ี": 458,
      "ึ": 459,
      "เ": 460,
      "แ": 461,
      "ไ": 462,
      "็": 463,
      "่": 464,
      "้": 465,
      "๊": 466,
      "์": 467,
      "Ⴀ": 468,
      "Ⴂ": 469,
      "Ⴃ": 470,
      "Ⴈ": 471,
      "Ⴌ": 472,
      "Ⴕ": 473,
      "Ⴟ": 474,
      "ა": 475,
      "ბ": 476,
      "გ": 477,
      "დ": 478,
      "ე": 479,
      "ვ": 480,
      "ზ": 481,
      "თ": 482,
      "ი": 483,
      "კ": 484,
      "ლ": 485,
      "მ": 486,
      "ნ": 487,
      "ო": 488,
      "პ": 489,
      "ჟ": 490,
      "რ": 491,
      "ს": 492,
      "ტ": 493,
      "უ": 494,
      "ფ": 495,
      "ქ": 496,
      "ღ": 497,
      "ყ": 498,
      "შ": 499,
      "ჩ": 500,
      "ც": 501,
      "ძ": 502,
      "წ": 503,
      "ჭ": 504,
      "ხ": 505,
      "ჯ": 506,
      "ჰ": 507,
      "ჱ": 508,
      "ჲ": 509,
      "ჳ": 510,
      "ჴ": 511,
      "ჵ": 512,
      "ჶ": 513,
      "ჷ": 514,
      "ჸ": 515,
      "ჹ": 516,
      "ჺ": 517,
      "჻": 518,
      "ᵻ": 519,
      "ḍ": 520,
      "ḏ": 521,
      "Ḥ": 522,
      "ḥ": 523,
      "ḷ": 524,
      "ṃ": 525,
      "ṅ": 526,
      "ṇ": 527,
      "ṛ": 528,
      "ṣ": 529,
      "ṭ": 530,
      "ṯ": 531,
      "ạ": 532,
      "ả": 533,
      "ấ": 534,
      "ầ": 535,
      "ậ": 536,
      "ắ": 537,
      "ễ": 538,
      "ệ": 539,
      "ị": 540,
      "ọ": 541,
      "ỏ": 542,
      "ỗ": 543,
      "ộ": 544,
      "ớ": 545,
      "ứ": 546,
      "ử": 547,
      "ữ": 548,
      "ỳ": 549,
      "ỹ": 550,
      "ἀ": 551,
      "ἰ": 552,
      "ὀ": 553,
      "ὁ": 554,
      "ὑ": 555,
      "​": 556,
      "‐": 557,
      "‑": 558,
      "–": 559,
      "—": 560,
      "―": 561,
      "‘": 562,
      "’": 563,
      "“": 564,
      "”": 565,
      "„": 566,
      "†": 567,
      "‡": 568,
      "•": 569,
      "…": 570,
      "′": 571,
      "″": 572,
      "⁄": 573,
      "₣": 574,
      "₤": 575,
      "€": 576,
      "₹": 577,
      "⅓": 578,
      "⅔": 579,
      "→": 580,
      "−": 581,
      "≡": 582,
      "≤": 583,
      "①": 584,
      "☉": 585,
      "☫": 586,
      "♀": 587,
      "♭": 588,
      "♯": 589,
      "⚳": 590,
      "〈": 591,
      "〉": 592,
      "〜": 593,
      "あ": 594,
      "い": 595,
      "う": 596,
      "お": 597,
      "か": 598,
      "が": 599,
      "き": 600,
      "ぎ": 601,
      "く": 602,
      "ぐ": 603,
      "け": 604,
      "こ": 605,
      "ご": 606,
      "さ": 607,
      "し": 608,
      "す": 609,
      "ず": 610,
      "ぜ": 611,
      "た": 612,
      "だ": 613,
      "ち": 614,
      "っ": 615,
      "つ": 616,
      "と": 617,
      "な": 618,
      "に": 619,
      "の": 620,
      "は": 621,
      "ば": 622,
      "ひ": 623,
      "ふ": 624,
      "ほ": 625,
      "ま": 626,
      "み": 627,
      "め": 628,
      "も": 629,
      "ゃ": 630,
      "ゆ": 631,
      "ょ": 632,
      "ら": 633,
      "り": 634,
      "る": 635,
      "れ": 636,
      "わ": 637,
      "を": 638,
      "ん": 639,
      "ァ": 640,
      "ア": 641,
      "ィ": 642,
      "イ": 643,
      "ゥ": 644,
      "ェ": 645,
      "エ": 646,
      "ォ": 647,
      "オ": 648,
      "カ": 649,
      "ガ": 650,
      "キ": 651,
      "ク": 652,
      "グ": 653,
      "ゲ": 654,
      "コ": 655,
      "サ": 656,
      "シ": 657,
      "ジ": 658,
      "ス": 659,
      "ズ": 660,
      "セ": 661,
      "タ": 662,
      "ダ": 663,
      "チ": 664,
      "ッ": 665,
      "ツ": 666,
      "テ": 667,
      "デ": 668,
      "ト": 669,
      "ド": 670,
      "ナ": 671,
      "ニ": 672,
      "ネ": 673,
      "ノ": 674,
      "ハ": 675,
      "バ": 676,
      "パ": 677,
      "フ": 678,
      "ブ": 679,
      "プ": 680,
      "ヘ": 681,
      "ベ": 682,
      "マ": 683,
      "ミ": 684,
      "ム": 685,
      "モ": 686,
      "ャ": 687,
      "ュ": 688,
      "ョ": 689,
      "ラ": 690,
      "リ": 691,
      "ル": 692,
      "レ": 693,
      "ロ": 694,
      "ン": 695,
      "ヴ": 696,
      "・": 697,
      "ー": 698,
      "一": 699,
      "七": 700,
      "下": 701,
      "世": 702,
      "丙": 703,
      "中": 704,
      "主": 705,
      "乃": 706,
      "之": 707,
      "乙": 708,
      "九": 709,
      "二": 710,
      "云": 711,
      "人": 712,
      "今": 713,
      "付": 714,
      "作": 715,
      "侗": 716,
      "依": 717,
      "信": 718,
      "傳": 719,
      "儚": 720,
      "充": 721,
      "光": 722,
      "全": 723,
      "兵": 724,
      "其": 725,
      "具": 726,
      "円": 727,
      "再": 728,
      "出": 729,
      "判": 730,
      "前": 731,
      "剛": 732,
      "劇": 733,
      "劉": 734,
      "動": 735,
      "化": 736,
      "北": 737,
      "华": 738,
      "厂": 739,
      "去": 740,
      "古": 741,
      "可": 742,
      "台": 743,
      "史": 744,
      "同": 745,
      "名": 746,
      "君": 747,
      "吳": 748,
      "周": 749,
      "命": 750,
      "和": 751,
      "咲": 752,
      "善": 753,
      "四": 754,
      "國": 755,
      "園": 756,
      "圣": 757,
      "在": 758,
      "坂": 759,
      "堤": 760,
      "場": 761,
      "塘": 762,
      "夕": 763,
      "大": 764,
      "天": 765,
      "夫": 766,
      "女": 767,
      "妙": 768,
      "姚": 769,
      "子": 770,
      "孟": 771,
      "守": 772,
      "安": 773,
      "宋": 774,
      "完": 775,
      "宗": 776,
      "宝": 777,
      "宫": 778,
      "寝": 779,
      "寺": 780,
      "小": 781,
      "少": 782,
      "尾": 783,
      "山": 784,
      "岳": 785,
      "川": 786,
      "州": 787,
      "巳": 788,
      "市": 789,
      "師": 790,
      "平": 791,
      "广": 792,
      "庆": 793,
      "府": 794,
      "座": 795,
      "廬": 796,
      "建": 797,
      "式": 798,
      "張": 799,
      "彌": 800,
      "彩": 801,
      "彼": 802,
      "後": 803,
      "御": 804,
      "德": 805,
      "思": 806,
      "愛": 807,
      "憑": 808,
      "憶": 809,
      "應": 810,
      "懷": 811,
      "战": 812,
      "戦": 813,
      "扈": 814,
      "技": 815,
      "拉": 816,
      "拳": 817,
      "挑": 818,
      "揺": 819,
      "攻": 820,
      "放": 821,
      "政": 822,
      "散": 823,
      "斯": 824,
      "方": 825,
      "日": 826,
      "旦": 827,
      "旭": 828,
      "昌": 829,
      "明": 830,
      "星": 831,
      "春": 832,
      "晋": 833,
      "景": 834,
      "曦": 835,
      "月": 836,
      "望": 837,
      "未": 838,
      "本": 839,
      "李": 840,
      "村": 841,
      "杜": 842,
      "束": 843,
      "来": 844,
      "林": 845,
      "桜": 846,
      "梶": 847,
      "棘": 848,
      "椎": 849,
      "楊": 850,
      "楚": 851,
      "榮": 852,
      "橘": 853,
      "機": 854,
      "正": 855,
      "殻": 856,
      "殿": 857,
      "母": 858,
      "水": 859,
      "汉": 860,
      "沂": 861,
      "沙": 862,
      "河": 863,
      "泗": 864,
      "波": 865,
      "泣": 866,
      "洪": 867,
      "淹": 868,
      "清": 869,
      "湯": 870,
      "漢": 871,
      "澄": 872,
      "澤": 873,
      "火": 874,
      "灯": 875,
      "灵": 876,
      "灼": 877,
      "焼": 878,
      "熱": 879,
      "物": 880,
      "狐": 881,
      "狸": 882,
      "玄": 883,
      "王": 884,
      "玩": 885,
      "珂": 886,
      "珙": 887,
      "球": 888,
      "理": 889,
      "琦": 890,
      "琪": 891,
      "瓊": 892,
      "生": 893,
      "田": 894,
      "畢": 895,
      "番": 896,
      "瘡": 897,
      "白": 898,
      "皮": 899,
      "真": 900,
      "砲": 901,
      "礮": 902,
      "祈": 903,
      "神": 904,
      "祠": 905,
      "秋": 906,
      "空": 907,
      "立": 908,
      "精": 909,
      "約": 910,
      "絵": 911,
      "織": 912,
      "義": 913,
      "翠": 914,
      "者": 915,
      "耕": 916,
      "肖": 917,
      "胡": 918,
      "膀": 919,
      "臂": 920,
      "興": 921,
      "良": 922,
      "花": 923,
      "芳": 924,
      "芽": 925,
      "若": 926,
      "英": 927,
      "藕": 928,
      "藥": 929,
      "蘄": 930,
      "蘇": 931,
      "行": 932,
      "裁": 933,
      "規": 934,
      "覺": 935,
      "观": 936,
      "解": 937,
      "記": 938,
      "誓": 939,
      "誡": 940,
      "誰": 941,
      "謎": 942,
      "许": 943,
      "谭": 944,
      "豪": 945,
      "豫": 946,
      "費": 947,
      "贵": 948,
      "赤": 949,
      "趙": 950,
      "足": 951,
      "跡": 952,
      "転": 953,
      "辛": 954,
      "逆": 955,
      "遇": 956,
      "運": 957,
      "過": 958,
      "遠": 959,
      "選": 960,
      "邦": 961,
      "邱": 962,
      "部": 963,
      "郭": 964,
      "都": 965,
      "酈": 966,
      "里": 967,
      "野": 968,
      "金": 969,
      "銃": 970,
      "鋼": 971,
      "錄": 972,
      "錡": 973,
      "鍵": 974,
      "鐵": 975,
      "钱": 976,
      "铁": 977,
      "關": 978,
      "防": 979,
      "阿": 980,
      "陈": 981,
      "陳": 982,
      "陽": 983,
      "隊": 984,
      "階": 985,
      "集": 986,
      "雪": 987,
      "雲": 988,
      "霖": 989,
      "霹": 990,
      "靂": 991,
      "韓": 992,
      "願": 993,
      "顯": 994,
      "颜": 995,
      "马": 996,
      "高": 997,
      "龍": 998,
      "대": 999,
      "독": 1000,
      "라": 1001,
      "립": 1002,
      "병": 1003,
      "보": 1004,
      "부": 1005,
      "알": 1006,
      "연": 1007,
      "제": 1008,
      "ﷲ": 1009,
      "ﻋ": 1010,
      "﻿": 1011,
      "／": 1012,
      "３": 1013,
      "～": 1014,
      "�": 1015,
      "##5": 1016,
      "##o": 1017,
      "##m": 1018,
      "##a": 1019,
      "##t": 1020,
      "##e": 1021,
      "##n": 1022,
      "##d": 1023,
      "##r": 1024,
      "##i": 1025,
      "##z": 1026,
      "##s": 1027,
      "##p": 1028,
      "##c": 1029,
      "##h": 1030,
      "##y": 1031,
      "##f": 1032,
      "##l": 1033,
      "##w": 1034,
      "##x": 1035,
      "##g": 1036,
      "##u": 1037,
      "##b": 1038,
      "##k": 1039,
      "##v": 1040,
      "##K": 1041,
      "##D": 1042,
      "##I": 1043,
      "##j": 1044,
      "##9": 1045,
      "##4": 1046,
      "##7": 1047,
      "##á": 1048,
      "##1": 1049,
      "##6": 1050,
      "##é": 1051,
      "##ô": 1052,
      "##S": 1053,
      "##2": 1054,
      "##0": 1055,
      "##ā": 1056,
      "##3": 1057,
      "##q": 1058,
      "##š": 1059,
      "##X": 1060,
      "##A": 1061,
      "##U": 1062,
      "##8": 1063,
      "##M": 1064,
      "##N": 1065,
      "##O": 1066,
      "##ɪ": 1067,
      "##ə": 1068,
      "##ø": 1069,
      "##í": 1070,
      "##大": 1071,
      "##B": 1072,
      "##ō": 1073,
      "##H": 1074,
      "##F": 1075,
      "##R": 1076,
      "##ţ": 1077,
      "##ǎ": 1078,
      "##à": 1079,
      "##ł": 1080,
      "##L": 1081,
      "##E": 1082,
      "##ó": 1083,
      "##τ": 1084,
      "##ί": 1085,
      "##μ": 1086,
      "##ι": 1087,
      "##о": 1088,
      "##л": 1089,
      "##с": 1090,
      "##а": 1091,
      "##т": 1092,
      "##ы": 1093,
      "##й": 1094,
      "##ă": 1095,
      "##T": 1096,
      "##P": 1097,
      "##C": 1098,
      "##ń": 1099,
      "##ˈ": 1100,
      "##ɑ": 1101,
      "##ː": 1102,
      "##พ": 1103,
      "##ร": 1104,
      "##ั": 1105,
      "##ć": 1106,
      "##ş": 1107,
      "##è": 1108,
      "##G": 1109,
      "##ú": 1110,
      "##đ": 1111,
      "##ë": 1112,
      "##ö": 1113,
      "##W": 1114,
      "##å": 1115,
      "##ü": 1116,
      "##Z": 1117,
      "##ắ": 1118,
      "##ñ": 1119,
      "##ī": 1120,
      "##ž": 1121,
      "##ū": 1122,
      "##ś": 1123,
      "##V": 1124,
      "##έ": 1125,
      "##ν": 1126,
      "##ο": 1127,
      "##ς": 1128,
      "##レ": 1129,
      "##ッ": 1130,
      "##チ": 1131,
      "##ू": 1132,
      "##र": 1133,
      "##Y": 1134,
      "##ב": 1135,
      "##ת": 1136,
      "##א": 1137,
      "##י": 1138,
      "##イ": 1139,
      "##ン": 1140,
      "##ズ": 1141,
      "##ブ": 1142,
      "##ー": 1143,
      "##ル": 1144,
      "##х": 1145,
      "##е": 1146,
      "##д": 1147,
      "##р": 1148,
      "##â": 1149,
      "##ì": 1150,
      "##四": 1151,
      "##式": 1152,
      "##拳": 1153,
      "##銃": 1154,
      "##Q": 1155,
      "##ォ": 1156,
      "##テ": 1157,
      "##憑": 1158,
      "##き": 1159,
      "##ό": 1160,
      "##ρ": 1161,
      "##υ": 1162,
      "##國": 1163,
      "##春": 1164,
      "##秋": 1165,
      "##後": 1166,
      "##集": 1167,
      "##რ": 1168,
      "##ი": 1169,
      "##ს": 1170,
      "##ტ": 1171,
      "##ე": 1172,
      "##ჲ": 1173,
      "##い": 1174,
      "##た": 1175,
      "##ù": 1176,
      "##ო": 1177,
      "##მ": 1178,
      "##თ": 1179,
      "##ა": 1180,
      "##ვ": 1181,
      "##უ": 1182,
      "##ლ": 1183,
      "##ʔ": 1184,
      "##`": 1185,
      "##û": 1186,
      "##ů": 1187,
      "##ぐ": 1188,
      "##み": 1189,
      "##剛": 1190,
      "##ʁ": 1191,
      "##雲": 1192,
      "##狐": 1193,
      "##ʻ": 1194,
      "##明": 1195,
      "##č": 1196,
      "##台": 1197,
      "##州": 1198,
      "##つ": 1199,
      "##ぜ": 1200,
      "##ん": 1201,
      "##J": 1202,
      "##日": 1203,
      "##も": 1204,
      "##だ": 1205,
      "##っ": 1206,
      "##ト": 1207,
      "##ゥ": 1208,
      "##ナ": 1209,
      "##ḥ": 1210,
      "##ा": 1211,
      "##द": 1212,
      "##ä": 1213,
      "##れ": 1214,
      "##颜": 1215,
      "##宗": 1216,
      "##望": 1217,
      "##憶": 1218,
      "##の": 1219,
      "##棘": 1220,
      "##覺": 1221,
      "##景": 1222,
      "##エ": 1223,
      "##ス": 1224,
      "##タ": 1225,
      "##デ": 1226,
      "##澤": 1227,
      "##ܲ": 1228,
      "##ܠ": 1229,
      "##ܵ": 1230,
      "##ܗ": 1231,
      "##ܐ": 1232,
      "##ï": 1233,
      "##λ": 1234,
      "##ά": 1235,
      "##χ": 1236,
      "##ơ": 1237,
      "##ち": 1238,
      "##ゃ": 1239,
      "##ס": 1240,
      "##ל": 1241,
      "##ỹ": 1242,
      "##ツ": 1243,
      "##ネ": 1244,
      "##ê": 1245,
      "##靂": 1246,
      "##火": 1247,
      "##砲": 1248,
      "##æ": 1249,
      "##ア": 1250,
      "##リ": 1251,
      "##ɳ": 1252,
      "##ṇ": 1253,
      "##揺": 1254,
      "##り": 1255,
      "##か": 1256,
      "##ご": 1257,
      "##ɫ": 1258,
      "##ź": 1259,
      "##ç": 1260,
      "##,": 1261,
      "##@": 1262,
      "##ą": 1263,
      "##ʿ": 1264,
      "##名": 1265,
      "##ṭ": 1266,
      "##π": 1267,
      "##α": 1268,
      "##κ": 1269,
      "##う": 1270,
      "##.": 1271,
      "##ノ": 1272,
      "##こ": 1273,
      "##と": 1274,
      "##ψ": 1275,
      "##ɾ": 1276,
      "##ʲ": 1277,
      "##建": 1278,
      "##华": 1279,
      "##ή": 1280,
      "##η": 1281,
      "##ੱ": 1282,
      "##ਲ": 1283,
      "##ਾ": 1284,
      "##ਹ": 1285,
      "##ჱ": 1286,
      "##妙": 1287,
      "##观": 1288,
      "##გ": 1289,
      "##ნ": 1290,
      "##ṣ": 1291,
      "##琦": 1292,
      "##β": 1293,
      "##村": 1294,
      "##м": 1295,
      "##ェ": 1296,
      "##ィ": 1297,
      "##バ": 1298,
      "##ı": 1299,
      "##再": 1300,
      "##興": 1301,
      "##ف": 1302,
      "##ن": 1303,
      "##ا": 1304,
      "##ʒ": 1305,
      "##ば": 1306,
      "##め": 1307,
      "##ș": 1308,
      "##ซ": 1309,
      "##し": 1310,
      "##君": 1311,
      "##が": 1312,
      "##願": 1313,
      "##な": 1314,
      "##ら": 1315,
      "##ょ": 1316,
      "##に": 1317,
      "##ṯ": 1318,
      "##œ": 1319,
      "##ش": 1320,
      "##م": 1321,
      "##و": 1322,
      "##ქ": 1323,
      "##დ": 1324,
      "##プ": 1325,
      "##ิ": 1326,
      "##ภ": 1327,
      "##า": 1328,
      "##ด": 1329,
      "##Ē": 1330,
      "##и": 1331,
      "##ш": 1332,
      "##н": 1333,
      "##в": 1334,
      "##ц": 1335,
      "##ь": 1336,
      "##к": 1337,
      "##ứ": 1338,
      "##ầ": 1339,
      "##ъ": 1340,
      "##з": 1341,
      "##ɛ": 1342,
      "##ɒ": 1343,
      "##曦": 1344,
      "##ც": 1345,
      "##ř": 1346,
      "##ị": 1347,
      "##न": 1348,
      "##े": 1349,
      "##क": 1350,
      "##あ": 1351,
      "##鍵": 1352,
      "##פ": 1353,
      "##ה": 1354,
      "##祠": 1355,
      "##ܕ": 1356,
      "##ܝ": 1357,
      "##ܢ": 1358,
      "##ܬ": 1359,
      "##ี": 1360,
      "##ɜ": 1361,
      "##選": 1362,
      "##ð": 1363,
      "##ē": 1364,
      "##依": 1365,
      "##子": 1366,
      "##ラ": 1367,
      "##ხ": 1368,
      "##ป": 1369,
      "##ย": 1370,
      "##ė": 1371,
      "##規": 1372,
      "##巳": 1373,
      "##泣": 1374,
      "##蘄": 1375,
      "##錄": 1376,
      "##錡": 1377,
      "##球": 1378,
      "##แ": 1379,
      "##ก": 1380,
      "##ų": 1381,
      "##ọ": 1382,
      "##ل": 1383,
      "##ب": 1384,
      "##庆": 1385,
      "##河": 1386,
      "##س": 1387,
      "##ت": 1388,
      "##ي": 1389,
      "##خ": 1390,
      "##神": 1391,
      "##ʊ": 1392,
      "##さ": 1393,
      "##祈": 1394,
      "##灵": 1395,
      "##宫": 1396,
      "##ã": 1397,
      "##わ": 1398,
      "##ュ": 1399,
      "##ダ": 1400,
      "##ỳ": 1401,
      "##ו": 1402,
      "##נ": 1403,
      "##星": 1404,
      "##漢": 1405,
      "##أ": 1406,
      "##ك": 1407,
      "##ر": 1408,
      "##د": 1409,
      "##î": 1410,
      "##γ": 1411,
      "##番": 1412,
      "##宝": 1413,
      "##物": 1414,
      "##ạ": 1415,
      "##ロ": 1416,
      "##ド": 1417,
      "##ộ": 1418,
      "##愛": 1419,
      "##ɽ": 1420,
      "##ण": 1421,
      "##ई": 1422,
      "##ल": 1423,
      "##ḍ": 1424,
      "##運": 1425,
      "##命": 1426,
      "##戦": 1427,
      "##乙": 1428,
      "##女": 1429,
      "##წ": 1430,
      "##ფ": 1431,
      "##ɡ": 1432,
      "##ᵻ": 1433,
      "##ấ": 1434,
      "##ゆ": 1435,
      "##ß": 1436,
      "##ɔ": 1437,
      "##ह": 1438,
      "##を": 1439,
      "##解": 1440,
      "##放": 1441,
      "##る": 1442,
      "##絵": 1443,
      "##ニ": 1444,
      "##व": 1445,
      "##シ": 1446,
      "##殻": 1447,
      "##機": 1448,
      "##動": 1449,
      "##隊": 1450,
      "##灼": 1451,
      "##熱": 1452,
      "##都": 1453,
      "##市": 1454,
      "##方": 1455,
      "##珂": 1456,
      "##束": 1457,
      "##お": 1458,
      "##守": 1459,
      "##'": 1460,
      "##إ": 1461,
      "##ه": 1462,
      "##ʃ": 1463,
      "##ク": 1464,
      "##マ": 1465,
      "##生": 1466,
      "##技": 1467,
      "##ع": 1468,
      "##ة": 1469,
      "##º": 1470,
      "##Ĕ": 1471,
      "##ാ": 1472,
      "##ഹ": 1473,
      "##彌": 1474,
      "##遠": 1475,
      "##ص": 1476,
      "##-": 1477,
      "##ư": 1478,
      "##邦": 1479,
      "##昌": 1480,
      "##ि": 1481,
      "##ま": 1482,
      "##ּ": 1483,
      "##安": 1484,
      "##玩": 1485,
      "##具": 1486,
      "##厂": 1487,
      "##ḏ": 1488,
      "##宋": 1489,
      "##中": 1490,
      "##岳": 1491,
      "##王": 1492,
      "##傳": 1493,
      "##藥": 1494,
      "##師": 1495,
      "##ț": 1496,
      "##ò": 1497,
      "##乃": 1498,
      "##本": 1499,
      "##セ": 1500,
      "##オ": 1501,
      "##サ": 1502,
      "##ذ": 1503,
      "##ử": 1504,
      "##フ": 1505,
      "##其": 1506,
      "##琪": 1507,
      "##ǔ": 1508,
      "##у": 1509,
      "##я": 1510,
      "##ح": 1511,
      "##ý": 1512,
      "##翠": 1513,
      "##英": 1514,
      "##ũ": 1515,
      "##ệ": 1516,
      "##二": 1517,
      "##之": 1518,
      "##平": 1519,
      "##キ": 1520,
      "##ค": 1521,
      "##ว": 1522,
      "##ต": 1523,
      "##拉": 1524,
      "##霖": 1525,
      "##ן": 1526,
      "##ḷ": 1527,
      "##ق": 1528,
      "##Ä": 1529,
      "##ậ": 1530,
      "##θ": 1531,
      "##ミ": 1532,
      "##贵": 1533,
      "##σ": 1534,
      "##ύ": 1535,
      "##ล": 1536,
      "##ง": 1537,
      "##ไ": 1538,
      "##ช": 1539,
      "##ֵ": 1540,
      "##ָ": 1541,
      "##ε": 1542,
      "##狸": 1543,
      "##精": 1544,
      "##ỏ": 1545,
      "##라": 1546,
      "##เ": 1547,
      "##作": 1548,
      "##ר": 1549,
      "##ם": 1550,
      "##ল": 1551,
      "##グ": 1552,
      "##ム": 1553,
      "##ョ": 1554,
      "##瘡": 1555,
      "##瓊": 1556,
      "##ж": 1557,
      "##少": 1558,
      "##波": 1559,
      "##義": 1560,
      "##信": 1561,
      "##母": 1562,
      "##殿": 1563,
      "##里": 1564,
      "##礮": 1565,
      "##来": 1566,
      "##挑": 1567,
      "##者": 1568,
      "##豫": 1569,
      "##ż": 1570,
      "##п": 1571,
      "##ả": 1572,
      "##ש": 1573,
      "##מ": 1574,
      "##צ": 1575,
      "##丙": 1576,
      "##す": 1577,
      "##ひ": 1578,
      "##ˌ": 1579,
      "##場": 1580,
      "##ヴ": 1581,
      "##ァ": 1582,
      "##和": 1583,
      "##川": 1584,
      "##彩": 1585,
      "##珙": 1586,
      "##在": 1587,
      "##É": 1588,
      "##円": 1589,
      "##寺": 1590,
      "##ξ": 1591,
      "##ễ": 1592,
      "##散": 1593,
      "##關": 1594,
      "##足": 1595,
      "##跡": 1596,
      "##田": 1597,
      "##ณ": 1598,
      "##ม": 1599,
      "##ę": 1600,
      "##榮": 1601,
      "##δ": 1602,
      "##ữ": 1603,
      "##є": 1604,
      "##ガ": 1605,
      "##３": 1606,
      "##อ": 1607,
      "##ώ": 1608,
      "##充": 1609,
      "##雪": 1610,
      "##ɐ": 1611,
      "##転": 1612,
      "##裁": 1613,
      "##判": 1614,
      "##天": 1615,
      "##府": 1616,
      "##ớ": 1617,
      "##顯": 1618,
      "##ء": 1619,
      "##ω": 1620,
      "##化": 1621,
      "##堤": 1622,
      "##ṅ": 1623,
      "##臂": 1624,
      "##膀": 1625,
      "##淹": 1626,
      "##金": 1627,
      "##山": 1628,
      "##부": 1629,
      "##대": 1630,
      "##ฮ": 1631,
      "##ĕ": 1632,
      "##ै": 1633,
      "##া": 1634,
      "##হ": 1635,
      "##兵": 1636,
      "##主": 1637,
      "##ず": 1638,
      "##空": 1639,
      "##園": 1640,
      "##ֶ": 1641,
      "##ğ": 1642,
      "##世": 1643,
      "##塘": 1644,
      "##尾": 1645,
      "##ȯ": 1646,
      "##독": 1647,
      "##립": 1648,
      "##보": 1649,
      "##병": 1650,
      "##연": 1651,
      "##ャ": 1652,
      "##モ": 1653,
      "##侗": 1654,
      "##ะ": 1655,
      "##น": 1656,
      "##く": 1657,
      "##光": 1658,
      "##汉": 1659,
      "##部": 1660,
      "##月": 1661,
      "##广": 1662,
      "##良": 1663,
      "##防": 1664,
      "##御": 1665,
      "##战": 1666,
      "##ỗ": 1667,
      "##г": 1668,
      "##付": 1669,
      "##ษ": 1670,
      "##ฐ": 1671,
      "##ぎ": 1672,
      "##去": 1673,
      "##思": 1674,
      "##出": 1675,
      "##ث": 1676,
      "##鋼": 1677,
      "##夫": 1678,
      "##人": 1679,
      "##夕": 1680,
      "##焼": 1681,
      "##け": 1682,
      "##誡": 1683,
      "##云": 1684,
      "##清": 1685,
      "##劇": 1686,
      "##政": 1687,
      "##正": 1688,
      "##芳": 1689,
      "##全": 1690,
      "##ึ": 1691,
      "##旦": 1692,
      "##ჳ": 1693,
      "##花": 1694,
      "##ള": 1695,
      "##ֹ": 1696,
      "##ף": 1697,
      "##誓": 1698,
      "##ੁ": 1699,
      "##同": 1700,
      "##懷": 1701,
      "##遇": 1702,
      "##ं": 1703,
      "##ग": 1704,
      "##ṛ": 1705,
      "##ṃ": 1706,
      "##ю": 1707,
      "##स": 1708,
      "##ु": 1709,
      "##ἰ": 1710,
      "##咲": 1711,
      "##沙": 1712,
      "##沂": 1713,
      "##he": 1714,
      "the": 1715,
      "##er": 1716,
      "##in": 1717,
      "##on": 1718,
      "##ed": 1719,
      "##nd": 1720,
      "##at": 1721,
      "##or": 1722,
      "##es": 1723,
      "##ar": 1724,
      "##en": 1725,
      "of": 1726,
      "##an": 1727,
      "##al": 1728,
      "in": 1729,
      "##it": 1730,
      "##ing": 1731,
      "##is": 1732,
      "and": 1733,
      "##as": 1734,
      "to": 1735,
      "##ic": 1736,
      "##ou": 1737,
      "##re": 1738,
      "##ion": 1739,
      "##om": 1740,
      "##el": 1741,
      "##il": 1742,
      "##ec": 1743,
      "##ent": 1744,
      "th": 1745,
      "##st": 1746,
      "##am": 1747,
      "##ur": 1748,
      "##et": 1749,
      "##ad": 1750,
      "##ol": 1751,
      "##ac": 1752,
      "was": 1753,
      "##ro": 1754,
      "The": 1755,
      "on": 1756,
      "##ly": 1757,
      "##ir": 1758,
      "##le": 1759,
      "for": 1760,
      "##iv": 1761,
      "##ter": 1762,
      "##id": 1763,
      "@-": 1764,
      "@-@": 1765,
      "##ot": 1766,
      "##ig": 1767,
      "as": 1768,
      "##ow": 1769,
      "st": 1770,
      "##ith": 1771,
      "##ay": 1772,
      "##em": 1773,
      "##im": 1774,
      "##ut": 1775,
      "##ation": 1776,
      "be": 1777,
      "that": 1778,
      "with": 1779,
      "##th": 1780,
      "is": 1781,
      "##ers": 1782,
      "##us": 1783,
      "##ts": 1784,
      "re": 1785,
      "wh": 1786,
      "by": 1787,
      "##ul": 1788,
      "al": 1789,
      "##ch": 1790,
      "##ce": 1791,
      "con": 1792,
      "##ver": 1793,
      "##and": 1794,
      "##os": 1795,
      "at": 1796,
      "##ain": 1797,
      "19": 1798,
      "##ag": 1799,
      "fr": 1800,
      "##her": 1801,
      "an": 1802,
      "##av": 1803,
      "##um": 1804,
      "##est": 1805,
      "##od": 1806,
      "his": 1807,
      "##op": 1808,
      "from": 1809,
      "##ess": 1810,
      "##ri": 1811,
      "com": 1812,
      "##ct": 1813,
      "##un": 1814,
      "##ap": 1815,
      "20": 1816,
      "he": 1817,
      "##ies": 1818,
      "pro": 1819,
      "##ere": 1820,
      "##ist": 1821,
      "de": 1822,
      "su": 1823,
      "##if": 1824,
      "##ear": 1825,
      "In": 1826,
      "##ill": 1827,
      "##ew": 1828,
      "were": 1829,
      "##ong": 1830,
      "##ld": 1831,
      "##ab": 1832,
      "##ak": 1833,
      "##ort": 1834,
      "##all": 1835,
      "##igh": 1836,
      "##ect": 1837,
      "##ate": 1838,
      "##ard": 1839,
      "##oc": 1840,
      "##ich": 1841,
      "it": 1842,
      "se": 1843,
      "or": 1844,
      "ch": 1845,
      "##pp": 1846,
      "##ud": 1847,
      "##ber": 1848,
      "ex": 1849,
      "##gh": 1850,
      "##ity": 1851,
      "##ated": 1852,
      "pl": 1853,
      "##se": 1854,
      "##art": 1855,
      "##ame": 1856,
      "##ive": 1857,
      "are": 1858,
      "sh": 1859,
      "##ant": 1860,
      "##ore": 1861,
      "##ack": 1862,
      "##rou": 1863,
      "had": 1864,
      "##ov": 1865,
      "which": 1866,
      "##our": 1867,
      "St": 1868,
      "##ian": 1869,
      "##nt": 1870,
      "sp": 1871,
      "##ast": 1872,
      "pr": 1873,
      "##ell": 1874,
      "not": 1875,
      "##ip": 1876,
      "tr": 1877,
      "##ord": 1878,
      "##ment": 1879,
      "##ally": 1880,
      "##ine": 1881,
      "##rit": 1882,
      "##ge": 1883,
      "##ost": 1884,
      "##pt": 1885,
      "##ther": 1886,
      "Ch": 1887,
      "##ish": 1888,
      "##ave": 1889,
      "##ia": 1890,
      "rec": 1891,
      "##ue": 1892,
      "##ary": 1893,
      "##ust": 1894,
      "le": 1895,
      "##og": 1896,
      "200": 1897,
      "fir": 1898,
      "##pl": 1899,
      "##ous": 1900,
      "##ight": 1901,
      "##cc": 1902,
      "inc": 1903,
      "##out": 1904,
      "##ions": 1905,
      "their": 1906,
      "but": 1907,
      "##ra": 1908,
      "##ie": 1909,
      "cont": 1910,
      "ar": 1911,
      "int": 1912,
      "##fter": 1913,
      "##ure": 1914,
      "##ical": 1915,
      "##ial": 1916,
      "##qu": 1917,
      "##so": 1918,
      "first": 1919,
      "##ould": 1920,
      "its": 1921,
      "##hed": 1922,
      "##ub": 1923,
      "whe": 1924,
      "##oll": 1925,
      "##wo": 1926,
      "her": 1927,
      "##ff": 1928,
      "##ok": 1929,
      "also": 1930,
      "cl": 1931,
      "##per": 1932,
      "##ide": 1933,
      "##own": 1934,
      "##ater": 1935,
      "##ome": 1936,
      "##orm": 1937,
      "##ru": 1938,
      "##ork": 1939,
      "##ass": 1940,
      "res": 1941,
      "##ign": 1942,
      "##ire": 1943,
      "ab": 1944,
      "ad": 1945,
      "rel": 1946,
      "##age": 1947,
      "##00": 1948,
      "have": 1949,
      "un": 1950,
      "##ence": 1951,
      "##mer": 1952,
      "one": 1953,
      "##ond": 1954,
      "en": 1955,
      "He": 1956,
      "##ry": 1957,
      "has": 1958,
      "##ough": 1959,
      "Th": 1960,
      "##ans": 1961,
      "per": 1962,
      "been": 1963,
      "##ime": 1964,
      "two": 1965,
      "18": 1966,
      "@.": 1967,
      "@.@": 1968,
      "Al": 1969,
      "##ree": 1970,
      "##ound": 1971,
      "##land": 1972,
      "sc": 1973,
      "##uring": 1974,
      "##ile": 1975,
      "comp": 1976,
      "##end": 1977,
      "##uc": 1978,
      "##ely": 1979,
      "##ory": 1980,
      "##ition": 1981,
      "##ance": 1982,
      "##ations": 1983,
      "dis": 1984,
      "this": 1985,
      "bec": 1986,
      "##ang": 1987,
      "app": 1988,
      "##iz": 1989,
      "all": 1990,
      "##ey": 1991,
      "##ach": 1992,
      "##ade": 1993,
      "play": 1994,
      "##lud": 1995,
      "who": 1996,
      "##ric": 1997,
      "des": 1998,
      "ag": 1999,
      "they": 2000,
      "year": 2001,
      "201": 2002,
      "other": 2003,
      "man": 2004,
      "It": 2005,
      "##pr": 2006,
      "after": 2007,
      "##act": 2008,
      "ser": 2009,
      "##ib": 2010,
      "##ult": 2011,
      "over": 2012,
      "off": 2013,
      "##ount": 2014,
      "##ite": 2015,
      "im": 2016,
      "@,": 2017,
      "@,@": 2018,
      "part": 2019,
      "includ": 2020,
      "##urn": 2021,
      "##over": 2022,
      "##ark": 2023,
      "##ik": 2024,
      "att": 2025,
      "us": 2026,
      "out": 2027,
      "##wn": 2028,
      "##eas": 2029,
      "##ice": 2030,
      "##ember": 2031,
      "##ace": 2032,
      "##ents": 2033,
      "##ng": 2034,
      "##ens": 2035,
      "pre": 2036,
      "up": 2037,
      "ev": 2038,
      "##ind": 2039,
      "time": 2040,
      "##nder": 2041,
      "into": 2042,
      "##we": 2043,
      "##ail": 2044,
      "##oy": 2045,
      "##ose": 2046,
      "comm": 2047,
      "she": 2048,
      "##amp": 2049,
      "would": 2050,
      "##ward": 2051,
      "##ied": 2052,
      "##oin": 2053,
      "On": 2054,
      "##te": 2055,
      "more": 2056,
      "##rough": 2057,
      "##able": 2058,
      "##man": 2059,
      "##ings": 2060,
      "##tern": 2061,
      "##ited": 2062,
      "we": 2063,
      "##ever": 2064,
      "##ason": 2065,
      "##rib": 2066,
      "him": 2067,
      "##ors": 2068,
      "Un": 2069,
      "##ood": 2070,
      "##les": 2071,
      "cent": 2072,
      "##ild": 2073,
      "##ix": 2074,
      "##ction": 2075,
      "##ock": 2076,
      "##ces": 2077,
      "work": 2078,
      "##ates": 2079,
      "##ious": 2080,
      "##ev": 2081,
      "##inal": 2082,
      "##one": 2083,
      "##old": 2084,
      "##ath": 2085,
      "##round": 2086,
      "##port": 2087,
      "##iss": 2088,
      "##ake": 2089,
      "##ss": 2090,
      "Ar": 2091,
      "them": 2092,
      "sec": 2093,
      "Fr": 2094,
      "bet": 2095,
      "when": 2096,
      "song": 2097,
      "rem": 2098,
      "##aw": 2099,
      "##ep": 2100,
      "##form": 2101,
      "##ual": 2102,
      "ear": 2103,
      "##fer": 2104,
      "##ick": 2105,
      "fe": 2106,
      "##ted": 2107,
      "##ubl": 2108,
      "##gan": 2109,
      "kn": 2110,
      "cons": 2111,
      "##aus": 2112,
      "##are": 2113,
      "most": 2114,
      "fl": 2115,
      "during": 2116,
      "new": 2117,
      "##orth": 2118,
      "##ilm": 2119,
      "##ons": 2120,
      "only": 2121,
      "##ters": 2122,
      "dec": 2123,
      "game": 2124,
      "##ug": 2125,
      "##ook": 2126,
      "##ved": 2127,
      "##att": 2128,
      "##eld": 2129,
      "Mar": 2130,
      "##oth": 2131,
      "##reat": 2132,
      "##way": 2133,
      "##ollow": 2134,
      "##ob": 2135,
      "can": 2136,
      "##outh": 2137,
      "##ween": 2138,
      "199": 2139,
      "##vel": 2140,
      "char": 2141,
      "about": 2142,
      "te": 2143,
      "season": 2144,
      "##ral": 2145,
      "##ational": 2146,
      "again": 2147,
      "three": 2148,
      "##ular": 2149,
      "under": 2150,
      "##eg": 2151,
      "than": 2152,
      "Com": 2153,
      "##ict": 2154,
      "##hip": 2155,
      "##ft": 2156,
      "##hn": 2157,
      "between": 2158,
      "##ered": 2159,
      "record": 2160,
      "##iew": 2161,
      "through": 2162,
      "##ision": 2163,
      "##olog": 2164,
      "##fore": 2165,
      "##orn": 2166,
      "later": 2167,
      "num": 2168,
      "end": 2169,
      "prod": 2170,
      "##ames": 2171,
      "pos": 2172,
      "writ": 2173,
      "while": 2174,
      "film": 2175,
      "##ished": 2176,
      "reg": 2177,
      "##als": 2178,
      "form": 2179,
      "ass": 2180,
      "##ury": 2181,
      "made": 2182,
      "sub": 2183,
      "ret": 2184,
      "##orld": 2185,
      "ac": 2186,
      "New": 2187,
      "spec": 2188,
      "acc": 2189,
      "act": 2190,
      "ind": 2191,
      "pe": 2192,
      "where": 2193,
      "mov": 2194,
      "##ener": 2195,
      "##meric": 2196,
      "##ank": 2197,
      "##ating": 2198,
      "inter": 2199,
      "Americ": 2200,
      "##ph": 2201,
      "##ole": 2202,
      "some": 2203,
      "lar": 2204,
      "def": 2205,
      "bas": 2206,
      "##bum": 2207,
      "releas": 2208,
      "##ont": 2209,
      "##aid": 2210,
      "mus": 2211,
      "bu": 2212,
      "follow": 2213,
      "gr": 2214,
      "At": 2215,
      "##ann": 2216,
      "##ived": 2217,
      "am": 2218,
      "##ific": 2219,
      "such": 2220,
      "second": 2221,
      "##ced": 2222,
      "so": 2223,
      "##ike": 2224,
      "four": 2225,
      "##ery": 2226,
      "An": 2227,
      "used": 2228,
      "##red": 2229,
      "##ics": 2230,
      "day": 2231,
      "##hes": 2232,
      "rev": 2233,
      "As": 2234,
      "##ily": 2235,
      "This": 2236,
      "000": 2237,
      "publ": 2238,
      "##ane": 2239,
      "call": 2240,
      "##ex": 2241,
      "Sh": 2242,
      "album": 2243,
      "##hen": 2244,
      "##any": 2245,
      "before": 2246,
      "me": 2247,
      "do": 2248,
      "##res": 2249,
      "sy": 2250,
      "10": 2251,
      "Eng": 2252,
      "being": 2253,
      "##oun": 2254,
      "Jo": 2255,
      "##ected": 2256,
      "##ept": 2257,
      "ep": 2258,
      "supp": 2259,
      "Br": 2260,
      "there": 2261,
      "years": 2262,
      "mon": 2263,
      "##owever": 2264,
      "bl": 2265,
      "##ool": 2266,
      "high": 2267,
      "##ars": 2268,
      "found": 2269,
      "##ird": 2270,
      "no": 2271,
      "##ife": 2272,
      "set": 2273,
      "##other": 2274,
      "##ines": 2275,
      "##aj": 2276,
      "##ained": 2277,
      "12": 2278,
      "sur": 2279,
      "##ins": 2280,
      "##ised": 2281,
      "##eb": 2282,
      "##ities": 2283,
      "##rop": 2284,
      "##ek": 2285,
      "##io": 2286,
      "series": 2287,
      "loc": 2288,
      "##pen": 2289,
      "number": 2290,
      "##iver": 2291,
      "##air": 2292,
      "pres": 2293,
      "##ause": 2294,
      "##ten": 2295,
      "##ode": 2296,
      "Sc": 2297,
      "sever": 2298,
      "Car": 2299,
      "##ier": 2300,
      "both": 2301,
      "##ince": 2302,
      "##ement": 2303,
      "##row": 2304,
      "appear": 2305,
      "##ower": 2306,
      "##ress": 2307,
      "##ron": 2308,
      "co": 2309,
      "16": 2310,
      "Brit": 2311,
      "then": 2312,
      "##irect": 2313,
      "##iet": 2314,
      "epis": 2315,
      "qu": 2316,
      "##ise": 2317,
      "including": 2318,
      "Le": 2319,
      "##ale": 2320,
      "##its": 2321,
      "##ection": 2322,
      "##ather": 2323,
      "cap": 2324,
      "##ert": 2325,
      "against": 2326,
      "well": 2327,
      "became": 2328,
      "contr": 2329,
      "known": 2330,
      "trans": 2331,
      "charac": 2332,
      "add": 2333,
      "el": 2334,
      "back": 2335,
      "go": 2336,
      "pop": 2337,
      "desc": 2338,
      "sing": 2339,
      "##ield": 2340,
      "##son": 2341,
      "##urch": 2342,
      "perform": 2343,
      "inv": 2344,
      "em": 2345,
      "##ures": 2346,
      "##ern": 2347,
      "198": 2348,
      "str": 2349,
      "##yl": 2350,
      "##ful": 2351,
      "many": 2352,
      "main": 2353,
      "##up": 2354,
      "stud": 2355,
      "long": 2356,
      "##though": 2357,
      "min": 2358,
      "##inn": 2359,
      "United": 2360,
      "15": 2361,
      "##velop": 2362,
      "##led": 2363,
      "##erm": 2364,
      "John": 2365,
      "11": 2366,
      "orig": 2367,
      "met": 2368,
      "##ton": 2369,
      "##ober": 2370,
      "##els": 2371,
      "17": 2372,
      "est": 2373,
      "##oot": 2374,
      "pol": 2375,
      "century": 2376,
      "team": 2377,
      "After": 2378,
      "##oad": 2379,
      "##uch": 2380,
      "She": 2381,
      "##ve": 2382,
      "develop": 2383,
      "##0s": 2384,
      "show": 2385,
      "conc": 2386,
      "par": 2387,
      "##ative": 2388,
      "##fl": 2389,
      "br": 2390,
      "##elf": 2391,
      "##iam": 2392,
      "##overn": 2393,
      "194": 2394,
      "##rap": 2395,
      "##az": 2396,
      "sm": 2397,
      "##ivers": 2398,
      "##ram": 2399,
      "##ope": 2400,
      "lead": 2401,
      "several": 2402,
      "ob": 2403,
      "##ah": 2404,
      "##ley": 2405,
      "mill": 2406,
      "##ually": 2407,
      "##anc": 2408,
      "began": 2409,
      "near": 2410,
      "196": 2411,
      "dif": 2412,
      "contin": 2413,
      "Ind": 2414,
      "sign": 2415,
      "##ized": 2416,
      "197": 2417,
      "##ll": 2418,
      "##ross": 2419,
      "direct": 2420,
      "##ains": 2421,
      "ext": 2422,
      "##emb": 2423,
      "compl": 2424,
      "air": 2425,
      "##yp": 2426,
      "may": 2427,
      "Wh": 2428,
      "##sp": 2429,
      "##ase": 2430,
      "art": 2431,
      "crit": 2432,
      "##ued": 2433,
      "early": 2434,
      "could": 2435,
      "hist": 2436,
      "##une": 2437,
      "bel": 2438,
      "cre": 2439,
      "did": 2440,
      "called": 2441,
      "episode": 2442,
      "Is": 2443,
      "##au": 2444,
      "describ": 2445,
      "##imes": 2446,
      "bro": 2447,
      "##roup": 2448,
      "run": 2449,
      "##ople": 2450,
      "##ntil": 2451,
      "rece": 2452,
      "##aking": 2453,
      "##ull": 2454,
      "disc": 2455,
      "along": 2456,
      "##ink": 2457,
      "##ccess": 2458,
      "##ments": 2459,
      "car": 2460,
      "May": 2461,
      "inst": 2462,
      "American": 2463,
      "said": 2464,
      "dist": 2465,
      "feat": 2466,
      "Bl": 2467,
      "##enn": 2468,
      "mil": 2469,
      "these": 2470,
      "##itt": 2471,
      "po": 2472,
      "##der": 2473,
      "##ium": 2474,
      "##ets": 2475,
      "Aust": 2476,
      "resp": 2477,
      "you": 2478,
      "##amed": 2479,
      "##hy": 2480,
      "though": 2481,
      "##ured": 2482,
      "ship": 2483,
      "##ove": 2484,
      "oper": 2485,
      "British": 2486,
      "down": 2487,
      "until": 2488,
      "##ruct": 2489,
      "prev": 2490,
      "fin": 2491,
      "##ange": 2492,
      "col": 2493,
      "prov": 2494,
      "city": 2495,
      "gener": 2496,
      "same": 2497,
      "war": 2498,
      "War": 2499,
      "##ty": 2500,
      "##ists": 2501,
      "##ially": 2502,
      "released": 2503,
      "land": 2504,
      "##ism": 2505,
      "##eng": 2506,
      "own": 2507,
      "any": 2508,
      "Sp": 2509,
      "##ided": 2510,
      "##erv": 2511,
      "##oman": 2512,
      "##erson": 2513,
      "cond": 2514,
      "return": 2515,
      "Pl": 2516,
      "They": 2517,
      "music": 2518,
      "km": 2519,
      "##ajor": 2520,
      "sl": 2521,
      "design": 2522,
      "produc": 2523,
      "For": 2524,
      "##ession": 2525,
      "##ible": 2526,
      "mat": 2527,
      "##osed": 2528,
      "sim": 2529,
      "const": 2530,
      "million": 2531,
      "exp": 2532,
      "13": 2533,
      "dep": 2534,
      "because": 2535,
      "Ger": 2536,
      "fam": 2537,
      "use": 2538,
      "area": 2539,
      "Tr": 2540,
      "Chr": 2541,
      "Aug": 2542,
      "final": 2543,
      "August": 2544,
      "occ": 2545,
      "##ently": 2546,
      "open": 2547,
      "##ash": 2548,
      "like": 2549,
      "success": 2550,
      "##und": 2551,
      "##ouse": 2552,
      "##ony": 2553,
      "##cept": 2554,
      "##ues": 2555,
      "Cl": 2556,
      "pass": 2557,
      "##oss": 2558,
      "eff": 2559,
      "##eal": 2560,
      "##chool": 2561,
      "people": 2562,
      "Con": 2563,
      "adv": 2564,
      "##stem": 2565,
      "offic": 2566,
      "count": 2567,
      "six": 2568,
      "##uth": 2569,
      "##my": 2570,
      "195": 2571,
      "around": 2572,
      "small": 2573,
      "##ident": 2574,
      "However": 2575,
      "Sept": 2576,
      "##gg": 2577,
      "dam": 2578,
      "mod": 2579,
      "##por": 2580,
      "north": 2581,
      "Ju": 2582,
      "head": 2583,
      "govern": 2584,
      "group": 2585,
      "##ales": 2586,
      "poin": 2587,
      "character": 2588,
      "start": 2589,
      "Ad": 2590,
      "##omin": 2591,
      "ed": 2592,
      "each": 2593,
      "support": 2594,
      "complet": 2595,
      "September": 2596,
      "##wards": 2597,
      "consid": 2598,
      "##ution": 2599,
      "ne": 2600,
      "following": 2601,
      "##aining": 2602,
      "World": 2603,
      "All": 2604,
      "##ven": 2605,
      "Comm": 2606,
      "Austral": 2607,
      "life": 2608,
      "imp": 2609,
      "ann": 2610,
      "##ural": 2611,
      "five": 2612,
      "var": 2613,
      "##ject": 2614,
      "US": 2615,
      "Her": 2616,
      "attack": 2617,
      "193": 2618,
      "##ording": 2619,
      "Pro": 2620,
      "gu": 2621,
      "will": 2622,
      "ever": 2623,
      "##ects": 2624,
      "191": 2625,
      "Col": 2626,
      "large": 2627,
      "II": 2628,
      "##ient": 2629,
      "##ting": 2630,
      "##ague": 2631,
      "North": 2632,
      "##lish": 2633,
      "book": 2634,
      "##ute": 2635,
      "##ox": 2636,
      "##ired": 2637,
      "##ren": 2638,
      "##hel": 2639,
      "##aving": 2640,
      "##aced": 2641,
      "star": 2642,
      "June": 2643,
      "##aur": 2644,
      "tit": 2645,
      "##ended": 2646,
      "14": 2647,
      "##ives": 2648,
      "##ored": 2649,
      "id": 2650,
      "##ina": 2651,
      "##ilt": 2652,
      "##ats": 2653,
      "week": 2654,
      "##med": 2655,
      "Eur": 2656,
      "##ately": 2657,
      "German": 2658,
      "arr": 2659,
      "Jan": 2660,
      "ent": 2661,
      "since": 2662,
      "States": 2663,
      "##uction": 2664,
      "##ology": 2665,
      "Pr": 2666,
      "major": 2667,
      "dr": 2668,
      "##ax": 2669,
      "south": 2670,
      "received": 2671,
      "South": 2672,
      "##ivision": 2673,
      "Gu": 2674,
      "##ble": 2675,
      "name": 2676,
      "partic": 2677,
      "hel": 2678,
      "##ages": 2679,
      "vers": 2680,
      "##ility": 2681,
      "Christ": 2682,
      "Oct": 2683,
      "Par": 2684,
      "public": 2685,
      "coll": 2686,
      "system": 2687,
      "##omet": 2688,
      "King": 2689,
      "state": 2690,
      "what": 2691,
      "##sc": 2692,
      "##uary": 2693,
      "rest": 2694,
      "batt": 2695,
      "described": 2696,
      "October": 2697,
      "line": 2698,
      "##aged": 2699,
      "class": 2700,
      "det": 2701,
      "prot": 2702,
      "mar": 2703,
      "red": 2704,
      "##iving": 2705,
      "Nov": 2706,
      "care": 2707,
      "played": 2708,
      "Gr": 2709,
      "##ody": 2710,
      "incre": 2711,
      "build": 2712,
      "##cl": 2713,
      "##ropical": 2714,
      "now": 2715,
      "took": 2716,
      "##ified": 2717,
      "##aim": 2718,
      "##ef": 2719,
      "##by": 2720,
      "##rote": 2721,
      "Fl": 2722,
      "last": 2723,
      "York": 2724,
      "##ively": 2725,
      "25": 2726,
      "world": 2727,
      "##ae": 2728,
      "Dec": 2729,
      "late": 2730,
      "##side": 2731,
      "##..": 2732,
      "##ograp": 2733,
      "July": 2734,
      "wrote": 2735,
      "##par": 2736,
      "##ech": 2737,
      "won": 2738,
      "##ideo": 2739,
      "species": 2740,
      "serv": 2741,
      "##eder": 2742,
      "child": 2743,
      "##ians": 2744,
      "##ined": 2745,
      "...": 2746,
      "camp": 2747,
      "##ret": 2748,
      "result": 2749,
      "Can": 2750,
      "During": 2751,
      "much": 2752,
      "larg": 2753,
      "due": 2754,
      "allow": 2755,
      "single": 2756,
      "Apr": 2757,
      "April": 2758,
      "##ides": 2759,
      "differ": 2760,
      "just": 2761,
      "And": 2762,
      "##iod": 2763,
      "death": 2764,
      "##ically": 2765,
      "gun": 2766,
      "##ission": 2767,
      "##ling": 2768,
      "Be": 2769,
      "Mc": 2770,
      "##ital": 2771,
      "##ext": 2772,
      "another": 2773,
      "included": 2774,
      "Mus": 2775,
      "poss": 2776,
      "old": 2777,
      "##ham": 2778,
      "tri": 2779,
      "storm": 2780,
      "vis": 2781,
      "short": 2782,
      "January": 2783,
      "ele": 2784,
      "list": 2785,
      "##akes": 2786,
      "left": 2787,
      "even": 2788,
      "30": 2789,
      "within": 2790,
      "England": 2791,
      "Ge": 2792,
      "report": 2793,
      "prog": 2794,
      "appro": 2795,
      "##ances": 2796,
      "ph": 2797,
      "named": 2798,
      "##itions": 2799,
      "##ops": 2800,
      "based": 2801,
      "estab": 2802,
      "if": 2803,
      "##ai": 2804,
      "port": 2805,
      "although": 2806,
      "cr": 2807,
      "attem": 2808,
      "top": 2809,
      "##ention": 2810,
      "very": 2811,
      "##ilar": 2812,
      "track": 2813,
      "belie": 2814,
      "bre": 2815,
      "third": 2816,
      "hum": 2817,
      "##ched": 2818,
      "##ards": 2819,
      "water": 2820,
      "March": 2821,
      "games": 2822,
      "##ants": 2823,
      "##ped": 2824,
      "power": 2825,
      "school": 2826,
      "event": 2827,
      "previous": 2828,
      "family": 2829,
      "##ead": 2830,
      "##urric": 2831,
      "##ulation": 2832,
      "November": 2833,
      "beg": 2834,
      "period": 2835,
      "review": 2836,
      "His": 2837,
      "way": 2838,
      "men": 2839,
      "expl": 2840,
      "##ms": 2841,
      "##raft": 2842,
      "Europe": 2843,
      "home": 2844,
      "By": 2845,
      "fur": 2846,
      "##que": 2847,
      "##aster": 2848,
      "government": 2849,
      "typ": 2850,
      "organ": 2851,
      "##ience": 2852,
      "192": 2853,
      "December": 2854,
      "best": 2855,
      "##avy": 2856,
      "turn": 2857,
      "##ature": 2858,
      "those": 2859,
      "hand": 2860,
      "Or": 2861,
      "There": 2862,
      "##amb": 2863,
      "place": 2864,
      "##ached": 2865,
      "##get": 2866,
      "med": 2867,
      "City": 2868,
      "##hest": 2869,
      "story": 2870,
      "prom": 2871,
      "built": 2872,
      "great": 2873,
      "original": 2874,
      "person": 2875,
      "##ences": 2876,
      "conv": 2877,
      "##ested": 2878,
      "100": 2879,
      "##ench": 2880,
      "##iven": 2881,
      "command": 2882,
      "kill": 2883,
      "##uct": 2884,
      "When": 2885,
      "##oci": 2886,
      "month": 2887,
      "sent": 2888,
      "##itary": 2889,
      "##elt": 2890,
      "opp": 2891,
      "##aff": 2892,
      "Ph": 2893,
      "make": 2894,
      "Char": 2895,
      "##ented": 2896,
      "##iversity": 2897,
      "National": 2898,
      "hal": 2899,
      "requ": 2900,
      "eng": 2901,
      "##ple": 2902,
      "2009": 2903,
      "auth": 2904,
      "video": 2905,
      "ant": 2906,
      "2008": 2907,
      "Bro": 2908,
      "2010": 2909,
      "##ison": 2910,
      "dem": 2911,
      "mark": 2912,
      "##ruction": 2913,
      "##gy": 2914,
      "##alk": 2915,
      "repr": 2916,
      "del": 2917,
      "##ning": 2918,
      "##inc": 2919,
      "##uss": 2920,
      "club": 2921,
      "##mp": 2922,
      "leg": 2923,
      "Man": 2924,
      "River": 2925,
      "my": 2926,
      "##ball": 2927,
      "repl": 2928,
      "##ung": 2929,
      "view": 2930,
      "##ival": 2931,
      "##oard": 2932,
      "##ense": 2933,
      "capt": 2934,
      "##line": 2935,
      "still": 2936,
      "Bar": 2937,
      "moved": 2938,
      "local": 2939,
      "stand": 2940,
      "led": 2941,
      "role": 2942,
      "##ott": 2943,
      "cour": 2944,
      "came": 2945,
      "term": 2946,
      "##ness": 2947,
      "##aken": 2948,
      "dest": 2949,
      "iss": 2950,
      "##ories": 2951,
      "##lear": 2952,
      "##idge": 2953,
      "##ests": 2954,
      "often": 2955,
      "common": 2956,
      "addition": 2957,
      "history": 2958,
      "##urricane": 2959,
      "caus": 2960,
      "##ner": 2961,
      "##ler": 2962,
      "##ke": 2963,
      "##urr": 2964,
      "Ab": 2965,
      "##ps": 2966,
      "##atter": 2967,
      "trad": 2968,
      "No": 2969,
      "few": 2970,
      "##rew": 2971,
      "rep": 2972,
      "sugg": 2973,
      "next": 2974,
      "##ister": 2975,
      "##read": 2976,
      "##ript": 2977,
      "2007": 2978,
      "considered": 2979,
      "##sh": 2980,
      "deb": 2981,
      "player": 2982,
      "mid": 2983,
      "##ior": 2984,
      "##int": 2985,
      "##astern": 2986,
      "##rod": 2987,
      "One": 2988,
      "English": 2989,
      "exper": 2990,
      "French": 2991,
      "career": 2992,
      "side": 2993,
      "##ged": 2994,
      "similar": 2995,
      "recorded": 2996,
      "Batt": 2997,
      "##ays": 2998,
      "win": 2999,
      "Ear": 3000,
      "We": 3001,
      "init": 3002,
      "Acc": 3003,
      "real": 3004,
      "El": 3005,
      "Rec": 3006,
      "##uted": 3007,
      "##ternational": 3008,
      "arch": 3009,
      "claim": 3010,
      "import": 3011,
      "company": 3012,
      "tem": 3013,
      "town": 3014,
      "published": 3015,
      "sol": 3016,
      "sold": 3017,
      "Comp": 3018,
      "continued": 3019,
      "increas": 3020,
      "Ed": 3021,
      "infl": 3022,
      "refer": 3023,
      "wind": 3024,
      "different": 3025,
      "take": 3026,
      "without": 3027,
      "##oute": 3028,
      "songs": 3029,
      "21": 3030,
      "With": 3031,
      "Per": 3032,
      "av": 3033,
      "road": 3034,
      "tot": 3035,
      "tel": 3036,
      "former": 3037,
      "polit": 3038,
      "held": 3039,
      "tw": 3040,
      "Will": 3041,
      "You": 3042,
      "memb": 3043,
      "sk": 3044,
      "ref": 3045,
      "among": 3046,
      "level": 3047,
      "field": 3048,
      "mag": 3049,
      "##oyal": 3050,
      "##yn": 3051,
      "##ices": 3052,
      "##bs": 3053,
      "##itar": 3054,
      "Am": 3055,
      "##iter": 3056,
      "written": 3057,
      "##inning": 3058,
      "every": 3059,
      "State": 3060,
      "##estern": 3061,
      "23": 3062,
      "commun": 3063,
      "half": 3064,
      "Pol": 3065,
      "##be": 3066,
      "##roy": 3067,
      "Division": 3068,
      "##yle": 3069,
      "prop": 3070,
      "##ampions": 3071,
      "further": 3072,
      "repres": 3073,
      "2011": 3074,
      "release": 3075,
      "find": 3076,
      "##ene": 3077,
      "##enc": 3078,
      "Port": 3079,
      "become": 3080,
      "attempt": 3081,
      "2006": 3082,
      "##raw": 3083,
      "##ensive": 3084,
      "According": 3085,
      "west": 3086,
      "##urs": 3087,
      "church": 3088,
      "Although": 3089,
      "strong": 3090,
      "however": 3091,
      "##ried": 3092,
      "days": 3093,
      "##augh": 3094,
      "Canad": 3095,
      "##ights": 3096,
      "east": 3097,
      "join": 3098,
      "Count": 3099,
      "##aly": 3100,
      "##ising": 3101,
      "version": 3102,
      "foot": 3103,
      "beh": 3104,
      "spe": 3105,
      "particular": 3106,
      "conf": 3107,
      "low": 3108,
      "Church": 3109,
      "##ize": 3110,
      "##ebru": 3111,
      "Af": 3112,
      "Gener": 3113,
      "compet": 3114,
      "position": 3115,
      "title": 3116,
      "24": 3117,
      "##pite": 3118,
      "prof": 3119,
      "##app": 3120,
      "military": 3121,
      "26": 3122,
      "Roman": 3123,
      "West": 3124,
      "author": 3125,
      "22": 3126,
      "##eter": 3127,
      "origin": 3128,
      "##orts": 3129,
      "##reen": 3130,
      "order": 3131,
      "League": 3132,
      "##outher": 3133,
      "##ches": 3134,
      "##let": 3135,
      "control": 3136,
      "##outhern": 3137,
      "Song": 3138,
      "times": 3139,
      "##ipp": 3140,
      "##aces": 3141,
      "##ittle": 3142,
      "Febru": 3143,
      "band": 3144,
      "February": 3145,
      "##press": 3146,
      "fre": 3147,
      "Ass": 3148,
      "less": 3149,
      "gave": 3150,
      "vict": 3151,
      "defe": 3152,
      "##ylan": 3153,
      "Geor": 3154,
      "##anes": 3155,
      "##oms": 3156,
      "Dylan": 3157,
      "cover": 3158,
      "##ves": 3159,
      "chang": 3160,
      "reported": 3161,
      "members": 3162,
      "Re": 3163,
      "nort": 3164,
      "enter": 3165,
      "Park": 3166,
      "nov": 3167,
      "##ailed": 3168,
      "##evision": 3169,
      "produced": 3170,
      "Des": 3171,
      "stat": 3172,
      "##iment": 3173,
      "total": 3174,
      "##self": 3175,
      "##hern": 3176,
      "2012": 3177,
      "Old": 3178,
      "##ared": 3179,
      "##aying": 3180,
      "##iety": 3181,
      "##ape": 3182,
      "##arm": 3183,
      "##omen": 3184,
      "##osp": 3185,
      "popular": 3186,
      "28": 3187,
      "fire": 3188,
      "ter": 3189,
      "inf": 3190,
      "production": 3191,
      "Air": 3192,
      "Sim": 3193,
      "tropical": 3194,
      "##hem": 3195,
      "post": 3196,
      "Jap": 3197,
      "##isc": 3198,
      "forces": 3199,
      "critic": 3200,
      "point": 3201,
      "##ford": 3202,
      "##ional": 3203,
      "children": 3204,
      "pat": 3205,
      "histor": 3206,
      "having": 3207,
      "##echn": 3208,
      "include": 3209,
      "cult": 3210,
      "##ably": 3211,
      "Ha": 3212,
      "##ours": 3213,
      "surv": 3214,
      "invol": 3215,
      "influ": 3216,
      "Su": 3217,
      "##arr": 3218,
      "##alion": 3219,
      "aff": 3220,
      "lost": 3221,
      "##aul": 3222,
      "given": 3223,
      "##atic": 3224,
      "country": 3225,
      "Afric": 3226,
      "want": 3227,
      "##ks": 3228,
      "obs": 3229,
      "young": 3230,
      "Ex": 3231,
      "##ald": 3232,
      "##oon": 3233,
      "##work": 3234,
      "##ush": 3235,
      "signific": 3236,
      "Cent": 3237,
      "Dav": 3238,
      "manag": 3239,
      "##ploy": 3240,
      "General": 3241,
      "equ": 3242,
      "##ots": 3243,
      "press": 3244,
      "2013": 3245,
      "Miss": 3246,
      "##con": 3247,
      "comb": 3248,
      "##ength": 3249,
      "eight": 3250,
      "sit": 3251,
      "site": 3252,
      "##ones": 3253,
      "##reet": 3254,
      "##ades": 3255,
      "seen": 3256,
      "program": 3257,
      "Ev": 3258,
      "body": 3259,
      "making": 3260,
      "never": 3261,
      "match": 3262,
      "fem": 3263,
      "##ither": 3264,
      "stated": 3265,
      "##uced": 3266,
      "establ": 3267,
      "gen": 3268,
      "read": 3269,
      "ord": 3270,
      "should": 3271,
      "While": 3272,
      "##earch": 3273,
      "##sequ": 3274,
      "##ological": 3275,
      "returned": 3276,
      "##aised": 3277,
      "##ator": 3278,
      "University": 3279,
      "##aun": 3280,
      "De": 3281,
      "ft": 3282,
      "##tain": 3283,
      "present": 3284,
      "sound": 3285,
      "frie": 3286,
      "50": 3287,
      "gl": 3288,
      "how": 3289,
      "##dom": 3290,
      "##rem": 3291,
      "190": 3292,
      "These": 3293,
      "island": 3294,
      "America": 3295,
      "soc": 3296,
      "struct": 3297,
      "earl": 3298,
      "ships": 3299,
      "announ": 3300,
      "established": 3301,
      "cor": 3302,
      "##ampionship": 3303,
      "27": 3304,
      "Jack": 3305,
      "Se": 3306,
      "god": 3307,
      "ground": 3308,
      "population": 3309,
      "cat": 3310,
      "div": 3311,
      "##ying": 3312,
      "##ges": 3313,
      "##ream": 3314,
      "reached": 3315,
      "##aint": 3316,
      "exc": 3317,
      "Ire": 3318,
      "##ration": 3319,
      "##omb": 3320,
      "noted": 3321,
      "away": 3322,
      "##af": 3323,
      "##ne": 3324,
      "Black": 3325,
      "friend": 3326,
      "Ireland": 3327,
      "##igade": 3328,
      "Reg": 3329,
      "lim": 3330,
      "##ination": 3331,
      "throughout": 3332,
      "across": 3333,
      "developed": 3334,
      "thought": 3335,
      "Lond": 3336,
      "Mich": 3337,
      "##iec": 3338,
      "##ground": 3339,
      "##ering": 3340,
      "seven": 3341,
      "cy": 3342,
      "somet": 3343,
      "##ket": 3344,
      "##ords": 3345,
      "##ogn": 3346,
      "William": 3347,
      "London": 3348,
      "fact": 3349,
      "rad": 3350,
      "right": 3351,
      "introd": 3352,
      "Feder": 3353,
      "good": 3354,
      "##ki": 3355,
      "using": 3356,
      "himself": 3357,
      "development": 3358,
      "##used": 3359,
      "cast": 3360,
      "##oo": 3361,
      "black": 3362,
      "##fic": 3363,
      "##iness": 3364,
      "destroy": 3365,
      "Cor": 3366,
      "hig": 3367,
      "cou": 3368,
      "felt": 3369,
      "##idence": 3370,
      "plan": 3371,
      "Australia": 3372,
      "human": 3373,
      "significant": 3374,
      "Gl": 3375,
      "##irc": 3376,
      "wat": 3377,
      "trav": 3378,
      "performed": 3379,
      "important": 3380,
      "##ivil": 3381,
      "adm": 3382,
      "Atl": 3383,
      "fun": 3384,
      "father": 3385,
      "##itive": 3386,
      "writing": 3387,
      "Pal": 3388,
      "Rich": 3389,
      "##eth": 3390,
      "Mag": 3391,
      "miles": 3392,
      "##antic": 3393,
      "television": 3394,
      "##osaur": 3395,
      "various": 3396,
      "areas": 3397,
      "##ief": 3398,
      "Cal": 3399,
      "##ael": 3400,
      "##vers": 3401,
      "tour": 3402,
      "##imately": 3403,
      "white": 3404,
      "modern": 3405,
      "full": 3406,
      "died": 3407,
      "look": 3408,
      "ten": 3409,
      "ins": 3410,
      "activ": 3411,
      "bo": 3412,
      "bar": 3413,
      "ball": 3414,
      "light": 3415,
      "law": 3416,
      "went": 3417,
      "##aign": 3418,
      "##field": 3419,
      "##ster": 3420,
      "Rober": 3421,
      "##reek": 3422,
      "##pression": 3423,
      "need": 3424,
      "prim": 3425,
      "events": 3426,
      "does": 3427,
      "successful": 3428,
      "Road": 3429,
      "##ements": 3430,
      "En": 3431,
      "##most": 3432,
      "##ico": 3433,
      "##ective": 3434,
      "##ization": 3435,
      "Cro": 3436,
      "players": 3437,
      "started": 3438,
      "Cr": 3439,
      "James": 3440,
      "mm": 3441,
      "##craft": 3442,
      "decl": 3443,
      "night": 3444,
      "suff": 3445,
      "house": 3446,
      "##ned": 3447,
      "##iting": 3448,
      "see": 3449,
      "feet": 3450,
      "formed": 3451,
      "poem": 3452,
      "fac": 3453,
      "mix": 3454,
      "range": 3455,
      "techn": 3456,
      "##reg": 3457,
      "##ourn": 3458,
      "elect": 3459,
      "Mount": 3460,
      "sett": 3461,
      "performance": 3462,
      "County": 3463,
      "put": 3464,
      "vill": 3465,
      "##ana": 3466,
      "style": 3467,
      "##aves": 3468,
      "relations": 3469,
      "building": 3470,
      "Mor": 3471,
      "age": 3472,
      "sum": 3473,
      "too": 3474,
      "force": 3475,
      "##abor": 3476,
      "caused": 3477,
      "##off": 3478,
      "##epend": 3479,
      "##na": 3480,
      "##ara": 3481,
      "##ublic": 3482,
      "sw": 3483,
      "##ument": 3484,
      "proc": 3485,
      "novel": 3486,
      "Ang": 3487,
      "pri": 3488,
      "189": 3489,
      "##iers": 3490,
      "##ino": 3491,
      "##alth": 3492,
      "##isted": 3493,
      "##elling": 3494,
      "created": 3495,
      "official": 3496,
      "##fall": 3497,
      "##idd": 3498,
      "Som": 3499,
      "##day": 3500,
      "2004": 3501,
      "relig": 3502,
      "pit": 3503,
      "##acy": 3504,
      "2005": 3505,
      "entire": 3506,
      "Ol": 3507,
      "To": 3508,
      "son": 3509,
      "able": 3510,
      "political": 3511,
      "High": 3512,
      "characters": 3513,
      "Sec": 3514,
      "Ham": 3515,
      "get": 3516,
      "others": 3517,
      "construction": 3518,
      "bird": 3519,
      "cert": 3520,
      "national": 3521,
      "pred": 3522,
      "##mb": 3523,
      "##ee": 3524,
      "##ries": 3525,
      "Town": 3526,
      "cas": 3527,
      "##ways": 3528,
      "##ett": 3529,
      "##lex": 3530,
      "##uck": 3531,
      "val": 3532,
      "##oming": 3533,
      "Hist": 3534,
      "Sw": 3535,
      "fig": 3536,
      "##gr": 3537,
      "##ample": 3538,
      "discover": 3539,
      "lik": 3540,
      "##ille": 3541,
      "once": 3542,
      "##play": 3543,
      "##ficult": 3544,
      "tro": 3545,
      "##enth": 3546,
      "remained": 3547,
      "located": 3548,
      "promot": 3549,
      "coun": 3550,
      "tradition": 3551,
      "31": 3552,
      "cross": 3553,
      "rock": 3554,
      "##ivid": 3555,
      "scored": 3556,
      "works": 3557,
      "difficult": 3558,
      "coast": 3559,
      "Island": 3560,
      "campaign": 3561,
      "guns": 3562,
      "tre": 3563,
      "stars": 3564,
      "meet": 3565,
      "completed": 3566,
      "Australian": 3567,
      "Grand": 3568,
      "announced": 3569,
      "rank": 3570,
      "region": 3571,
      "Cup": 3572,
      "Me": 3573,
      "hold": 3574,
      "##oid": 3575,
      "##ck": 3576,
      "Kingdom": 3577,
      "nuc": 3578,
      "squ": 3579,
      "##omes": 3580,
      "enc": 3581,
      "grow": 3582,
      "##itted": 3583,
      "super": 3584,
      "chart": 3585,
      "Company": 3586,
      "fav": 3587,
      "little": 3588,
      "##ique": 3589,
      "conn": 3590,
      "let": 3591,
      "##enced": 3592,
      "front": 3593,
      "##rought": 3594,
      "instead": 3595,
      "help": 3596,
      "##orse": 3597,
      "29": 3598,
      "##ament": 3599,
      "added": 3600,
      "circ": 3601,
      "##here": 3602,
      "##omm": 3603,
      "##omp": 3604,
      "##leet": 3605,
      "least": 3606,
      "followed": 3607,
      "Bill": 3608,
      "born": 3609,
      "##cil": 3610,
      "##less": 3611,
      "know": 3612,
      "peak": 3613,
      "appeared": 3614,
      "killed": 3615,
      "southern": 3616,
      "##mar": 3617,
      "##emy": 3618,
      "##angu": 3619,
      "months": 3620,
      "originally": 3621,
      "process": 3622,
      "wife": 3623,
      "##oice": 3624,
      "comment": 3625,
      "Army": 3626,
      "##iol": 3627,
      "stri": 3628,
      "##umb": 3629,
      "David": 3630,
      "fif": 3631,
      "loss": 3632,
      "mother": 3633,
      "##ota": 3634,
      "Sy": 3635,
      "hurricane": 3636,
      "##ius": 3637,
      "##lement": 3638,
      "sex": 3639,
      "associ": 3640,
      "cell": 3641,
      "mass": 3642,
      "women": 3643,
      "goal": 3644,
      "##hys": 3645,
      "Music": 3646,
      "40": 3647,
      "eastern": 3648,
      "non": 3649,
      "##ston": 3650,
      "##antry": 3651,
      "agre": 3652,
      "ident": 3653,
      "Mon": 3654,
      "relationship": 3655,
      "Act": 3656,
      "aud": 3657,
      "award": 3658,
      "##ract": 3659,
      "2003": 3660,
      "185": 3661,
      "critics": 3662,
      "broad": 3663,
      "Pres": 3664,
      "bus": 3665,
      "anim": 3666,
      "eventually": 3667,
      "##ata": 3668,
      "features": 3669,
      "God": 3670,
      "Other": 3671,
      "voc": 3672,
      "##olution": 3673,
      "##aper": 3674,
      "recogn": 3675,
      "2015": 3676,
      "Har": 3677,
      "far": 3678,
      "live": 3679,
      "##ully": 3680,
      "project": 3681,
      "France": 3682,
      "Rock": 3683,
      "appoin": 3684,
      "fourth": 3685,
      "Ir": 3686,
      "Ser": 3687,
      "route": 3688,
      "taken": 3689,
      "##pts": 3690,
      "##iction": 3691,
      "estim": 3692,
      "Two": 3693,
      "mount": 3694,
      "##gin": 3695,
      "served": 3696,
      "##liam": 3697,
      "##istic": 3698,
      "Flor": 3699,
      "Ant": 3700,
      "Ber": 3701,
      "Mad": 3702,
      "##rated": 3703,
      "##ani": 3704,
      "commer": 3705,
      "##illa": 3706,
      "##ography": 3707,
      "lack": 3708,
      "##ama": 3709,
      "##chie": 3710,
      "decided": 3711,
      "damage": 3712,
      "aver": 3713,
      "##cher": 3714,
      "##utes": 3715,
      "heavy": 3716,
      "##igned": 3717,
      "##azine": 3718,
      "represent": 3719,
      "either": 3720,
      "fight": 3721,
      "##oom": 3722,
      "insp": 3723,
      "Battalion": 3724,
      "##iation": 3725,
      "prote": 3726,
      "proble": 3727,
      "separ": 3728,
      "impro": 3729,
      "##ency": 3730,
      "##ought": 3731,
      "special": 3732,
      "behind": 3733,
      "Robert": 3734,
      "Love": 3735,
      "Rev": 3736,
      "toget": 3737,
      "##ecut": 3738,
      "individ": 3739,
      "believed": 3740,
      "together": 3741,
      "##ring": 3742,
      "##ida": 3743,
      "arm": 3744,
      "arg": 3745,
      "quar": 3746,
      "##liament": 3747,
      "clear": 3748,
      "##ica": 3749,
      "clos": 3750,
      "Royal": 3751,
      "mater": 3752,
      "##cial": 3753,
      "dev": 3754,
      "playing": 3755,
      "Carey": 3756,
      "Red": 3757,
      "dou": 3758,
      "##aching": 3759,
      "Hen": 3760,
      "Med": 3761,
      "##iber": 3762,
      "##uit": 3763,
      "##arn": 3764,
      "move": 3765,
      "battle": 3766,
      "Min": 3767,
      "Mex": 3768,
      "bi": 3769,
      "creat": 3770,
      "langu": 3771,
      "round": 3772,
      "vol": 3773,
      "example": 3774,
      "close": 3775,
      "Du": 3776,
      "Some": 3777,
      "ve": 3778,
      "almost": 3779,
      "188": 3780,
      "##ened": 3781,
      "service": 3782,
      "curr": 3783,
      "sel": 3784,
      "sour": 3785,
      "interv": 3786,
      "leading": 3787,
      "European": 3788,
      "My": 3789,
      "Part": 3790,
      "fall": 3791,
      "generally": 3792,
      "Federer": 3793,
      "saw": 3794,
      "##ators": 3795,
      "towards": 3796,
      "##ential": 3797,
      "##odes": 3798,
      "White": 3799,
      "##spec": 3800,
      "occur": 3801,
      "opened": 3802,
      "elements": 3803,
      "35": 3804,
      "Co": 3805,
      "miss": 3806,
      "##hic": 3807,
      "general": 3808,
      "brought": 3809,
      "##gar": 3810,
      "##uter": 3811,
      "##oring": 3812,
      "Brigade": 3813,
      "weeks": 3814,
      "Bra": 3815,
      "Game": 3816,
      "Wales": 3817,
      "draw": 3818,
      "mot": 3819,
      "##hing": 3820,
      "##ceed": 3821,
      "International": 3822,
      "##rict": 3823,
      "finished": 3824,
      "bur": 3825,
      "laun": 3826,
      "##alt": 3827,
      "##stit": 3828,
      "ste": 3829,
      "##ending": 3830,
      "Im": 3831,
      "Kh": 3832,
      "Viet": 3833,
      "host": 3834,
      "wall": 3835,
      "regular": 3836,
      "highway": 3837,
      "study": 3838,
      "featured": 3839,
      "hy": 3840,
      "##anch": 3841,
      "##ask": 3842,
      "central": 3843,
      "aircraft": 3844,
      "net": 3845,
      "##eum": 3846,
      "##irl": 3847,
      "indust": 3848,
      "East": 3849,
      "Mont": 3850,
      "hon": 3851,
      "##board": 3852,
      "##ordan": 3853,
      "Fir": 3854,
      "##val": 3855,
      "reb": 3856,
      "points": 3857,
      "fund": 3858,
      "inform": 3859,
      "accept": 3860,
      "directed": 3861,
      "action": 3862,
      "burn": 3863,
      "mi": 3864,
      "meas": 3865,
      "wid": 3866,
      "##ky": 3867,
      "##eler": 3868,
      "Championship": 3869,
      "director": 3870,
      "provided": 3871,
      "Follow": 3872,
      "cut": 3873,
      "##ania": 3874,
      "##icated": 3875,
      "##wood": 3876,
      "186": 3877,
      "flood": 3878,
      "individual": 3879,
      "Jordan": 3880,
      "sequ": 3881,
      "upon": 3882,
      "##eption": 3883,
      "Rep": 3884,
      "##aps": 3885,
      "mean": 3886,
      "appearance": 3887,
      "Gal": 3888,
      "Jew": 3889,
      "yard": 3890,
      "##ores": 3891,
      "##ellow": 3892,
      "From": 3893,
      "earlier": 3894,
      "Ke": 3895,
      "king": 3896,
      "##atin": 3897,
      "##ander": 3898,
      "Sl": 3899,
      "cost": 3900,
      "rather": 3901,
      "##anding": 3902,
      "2014": 3903,
      "subsequ": 3904,
      "female": 3905,
      "Atlantic": 3906,
      "troops": 3907,
      "Od": 3908,
      "ill": 3909,
      "stru": 3910,
      "##ishing": 3911,
      "##medi": 3912,
      "Christian": 3913,
      "Cap": 3914,
      "Mary": 3915,
      "river": 3916,
      "largest": 3917,
      "victory": 3918,
      "Following": 3919,
      "500": 3920,
      "House": 3921,
      "qual": 3922,
      "##sel": 3923,
      "employ": 3924,
      "operations": 3925,
      "Hero": 3926,
      "particularly": 3927,
      "George": 3928,
      "manager": 3929,
      "Dr": 3930,
      "achie": 3931,
      "##erous": 3932,
      "##ouri": 3933,
      "19th": 3934,
      "prob": 3935,
      "##ington": 3936,
      "fort": 3937,
      "opening": 3938,
      "wanted": 3939,
      "Hol": 3940,
      "cop": 3941,
      "##thlet": 3942,
      "##anese": 3943,
      "northern": 3944,
      "Mac": 3945,
      "foc": 3946,
      "yards": 3947,
      "##osition": 3948,
      "exist": 3949,
      "evidence": 3950,
      "Play": 3951,
      "##cent": 3952,
      "##ita": 3953,
      "reason": 3954,
      "Phil": 3955,
      "Florida": 3956,
      "Em": 3957,
      "Mo": 3958,
      "Wal": 3959,
      "member": 3960,
      "##head": 3961,
      "pract": 3962,
      "Bay": 3963,
      "saying": 3964,
      "##iff": 3965,
      "Street": 3966,
      "outside": 3967,
      "crew": 3968,
      "allowed": 3969,
      "possible": 3970,
      "engine": 3971,
      "Most": 3972,
      "Paul": 3973,
      "viol": 3974,
      "##uk": 3975,
      "##uel": 3976,
      "##atural": 3977,
      "Oliv": 3978,
      "Mark": 3979,
      "Wil": 3980,
      "ly": 3981,
      "mer": 3982,
      "neg": 3983,
      "past": 3984,
      "##west": 3985,
      "stage": 3986,
      "##ago": 3987,
      "McC": 3988,
      "hours": 3989,
      "##ule": 3990,
      "##igg": 3991,
      "whom": 3992,
      "respons": 3993,
      "##conom": 3994,
      "Ac": 3995,
      "Day": 3996,
      "case": 3997,
      "##ems": 3998,
      "##ude": 3999,
      "##artment": 4000,
      "poor": 4001,
      "Missouri": 4002,
      "material": 4003,
      "free": 4004,
      "##ased": 4005,
      "2001": 4006,
      "worked": 4007,
      "regard": 4008,
      "conduct": 4009,
      "But": 4010,
      "gre": 4011,
      "length": 4012,
      "mach": 4013,
      "nec": 4014,
      "##ih": 4015,
      "##ills": 4016,
      "territ": 4017,
      "Tech": 4018,
      "gold": 4019,
      "##urt": 4020,
      "plann": 4021,
      "working": 4022,
      "che": 4023,
      "##bor": 4024,
      "##vert": 4025,
      "Tor": 4026,
      "love": 4027,
      "rul": 4028,
      "##aries": 4029,
      "##ites": 4030,
      "quick": 4031,
      "Vir": 4032,
      "##men": 4033,
      "##now": 4034,
      "designed": 4035,
      "##tt": 4036,
      "##for": 4037,
      "##hens": 4038,
      "contract": 4039,
      "football": 4040,
      "Bus": 4041,
      "Qu": 4042,
      "San": 4043,
      "lear": 4044,
      "mult": 4045,
      "praised": 4046,
      "Indian": 4047,
      "Best": 4048,
      "esc": 4049,
      "ren": 4050,
      "treat": 4051,
      "##onst": 4052,
      "##oles": 4053,
      "forced": 4054,
      "station": 4055,
      "remains": 4056,
      "construct": 4057,
      "avail": 4058,
      "First": 4059,
      "nomin": 4060,
      "##irth": 4061,
      "187": 4062,
      "goals": 4063,
      "Michael": 4064,
      "Val": 4065,
      "##uation": 4066,
      "##vest": 4067,
      "think": 4068,
      "winds": 4069,
      "Sm": 4070,
      "Squ": 4071,
      "civil": 4072,
      "##ming": 4073,
      "##heast": 4074,
      "##ari": 4075,
      "diss": 4076,
      "increased": 4077,
      "Egy": 4078,
      "pers": 4079,
      "##ronic": 4080,
      "effect": 4081,
      "previously": 4082,
      "Egypt": 4083,
      "Fe": 4084,
      "##wh": 4085,
      "##ula": 4086,
      "above": 4087,
      "Thom": 4088,
      "soon": 4089,
      "replaced": 4090,
      "commercial": 4091,
      "##uce": 4092,
      "##itz": 4093,
      "##asion": 4094,
      "##ributed": 4095,
      "interest": 4096,
      "Richard": 4097,
      "App": 4098,
      "Whe": 4099,
      "must": 4100,
      "##ving": 4101,
      "##jects": 4102,
      "##BC": 4103,
      "##erved": 4104,
      "##urb": 4105,
      "##olic": 4106,
      "ask": 4107,
      "Carol": 4108,
      "Super": 4109,
      "business": 4110,
      "interview": 4111,
      "Hel": 4112,
      "pain": 4113,
      "##co": 4114,
      "##ows": 4115,
      "Despite": 4116,
      "Que": 4117,
      "##ste": 4118,
      "##ady": 4119,
      "##lege": 4120,
      "##ids": 4121,
      "##osing": 4122,
      "##ump": 4123,
      "##abit": 4124,
      "writer": 4125,
      "Brown": 4126,
      "quarter": 4127,
      "trib": 4128,
      "threat": 4129,
      "##aker": 4130,
      "Henry": 4131,
      "Sun": 4132,
      "mph": 4133,
      "##AF": 4134,
      "##atory": 4135,
      "units": 4136,
      "Canada": 4137,
      "estimated": 4138,
      "##usion": 4139,
      "##ulf": 4140,
      "##ibility": 4141,
      "specific": 4142,
      "court": 4143,
      "Oldham": 4144,
      "36": 4145,
      "pur": 4146,
      "##acing": 4147,
      "surf": 4148,
      "claimed": 4149,
      "joined": 4150,
      "Japanese": 4151,
      "highest": 4152,
      "Times": 4153,
      "pen": 4154,
      "inj": 4155,
      "##ulated": 4156,
      "placed": 4157,
      "unc": 4158,
      "##ription": 4159,
      "involved": 4160,
      "President": 4161,
      "##ecutive": 4162,
      "Govern": 4163,
      "Pe": 4164,
      "fly": 4165,
      "western": 4166,
      "##cast": 4167,
      "##gl": 4168,
      "priv": 4169,
      "##ends": 4170,
      "signed": 4171,
      "discuss": 4172,
      "suggested": 4173,
      "45": 4174,
      "Mos": 4175,
      "Res": 4176,
      "##lt": 4177,
      "##band": 4178,
      "##ector": 4179,
      "##elled": 4180,
      "183": 4181,
      "parts": 4182,
      "Ag": 4183,
      "Card": 4184,
      "Gold": 4185,
      "##ault": 4186,
      "##ayed": 4187,
      "intens": 4188,
      "India": 4189,
      "profession": 4190,
      "Olivier": 4191,
      "Hall": 4192,
      "Later": 4193,
      "School": 4194,
      "hous": 4195,
      "##iding": 4196,
      "proper": 4197,
      "change": 4198,
      "league": 4199,
      "itself": 4200,
      "Arab": 4201,
      "invest": 4202,
      "Vietn": 4203,
      "00": 4204,
      "Cong": 4205,
      "Not": 4206,
      "don": 4207,
      "ey": 4208,
      "shot": 4209,
      "##anna": 4210,
      "ide": 4211,
      "Irish": 4212,
      "average": 4213,
      "Mexico": 4214,
      "Var": 4215,
      "hard": 4216,
      "op": 4217,
      "taking": 4218,
      "##ching": 4219,
      "##ume": 4220,
      "emb": 4221,
      "available": 4222,
      "##ville": 4223,
      "international": 4224,
      "##ete": 4225,
      "##aph": 4226,
      "heav": 4227,
      "except": 4228,
      "scene": 4229,
      "##ails": 4230,
      "transfer": 4231,
      "brother": 4232,
      "break": 4233,
      "##ready": 4234,
      "introduced": 4235,
      "Ne": 4236,
      "Pac": 4237,
      "hit": 4238,
      "##rd": 4239,
      "whose": 4240,
      "##apt": 4241,
      "##hedral": 4242,
      "recording": 4243,
      "respect": 4244,
      "village": 4245,
      "race": 4246,
      "wood": 4247,
      "stop": 4248,
      "react": 4249,
      "##porary": 4250,
      "cycl": 4251,
      "travel": 4252,
      "Thomas": 4253,
      "Bo": 4254,
      "phys": 4255,
      "##ximately": 4256,
      "##ections": 4257,
      "express": 4258,
      "grad": 4259,
      "religious": 4260,
      "Don": 4261,
      "mem": 4262,
      "##ties": 4263,
      "##ze": 4264,
      "##enes": 4265,
      "##achel": 4266,
      "##pper": 4267,
      "educ": 4268,
      "network": 4269,
      "NY": 4270,
      "cru": 4271,
      "nine": 4272,
      "names": 4273,
      "told": 4274,
      "prepar": 4275,
      "remov": 4276,
      "Britain": 4277,
      "shows": 4278,
      "damaged": 4279,
      "Dev": 4280,
      "ke": 4281,
      "piec": 4282,
      "##iqu": 4283,
      "##arily": 4284,
      "abs": 4285,
      "independ": 4286,
      "Scient": 4287,
      "capital": 4288,
      "turned": 4289,
      "increasing": 4290,
      "social": 4291,
      "Republic": 4292,
      "Great": 4293,
      "Hurricane": 4294,
      "cal": 4295,
      "give": 4296,
      "lines": 4297,
      "chap": 4298,
      "That": 4299,
      "Guitar": 4300,
      "structure": 4301,
      "Many": 4302,
      "bill": 4303,
      "184": 4304,
      "despite": 4305,
      "Art": 4306,
      "feel": 4307,
      "nearly": 4308,
      "determ": 4309,
      "appointed": 4310,
      "Zeal": 4311,
      "size": 4312,
      "##odies": 4313,
      "##unk": 4314,
      "Union": 4315,
      "community": 4316,
      "ap": 4317,
      "den": 4318,
      "date": 4319,
      "econom": 4320,
      "liter": 4321,
      "##hib": 4322,
      "##go": 4323,
      "##ateg": 4324,
      "surround": 4325,
      "passed": 4326,
      "fut": 4327,
      "might": 4328,
      "withd": 4329,
      "##oph": 4330,
      "##bert": 4331,
      "immedi": 4332,
      "##inese": 4333,
      "occup": 4334,
      "establish": 4335,
      "debut": 4336,
      "initially": 4337,
      "##osaurus": 4338,
      "certain": 4339,
      "##specially": 4340,
      "pot": 4341,
      "winning": 4342,
      "##gu": 4343,
      "tow": 4344,
      "##ilities": 4345,
      "##etic": 4346,
      "already": 4347,
      "deal": 4348,
      "##ability": 4349,
      "assist": 4350,
      "base": 4351,
      "going": 4352,
      "particip": 4353,
      "Pacific": 4354,
      "60": 4355,
      "Jin": 4356,
      "failed": 4357,
      "rain": 4358,
      "rap": 4359,
      "##ha": 4360,
      "##ication": 4361,
      "states": 4362,
      "##rian": 4363,
      "Chinese": 4364,
      "disp": 4365,
      "Early": 4366,
      "archae": 4367,
      "Zealand": 4368,
      "Ever": 4369,
      "aut": 4370,
      "doc": 4371,
      "especially": 4372,
      "##ises": 4373,
      "training": 4374,
      "according": 4375,
      "transport": 4376,
      "language": 4377,
      "probably": 4378,
      "Cath": 4379,
      "Sing": 4380,
      "food": 4381,
      "key": 4382,
      "2002": 4383,
      "##ification": 4384,
      "minor": 4385,
      "issue": 4386,
      "Film": 4387,
      "Law": 4388,
      "Ma": 4389,
      "Pri": 4390,
      "Tom": 4391,
      "cel": 4392,
      "dro": 4393,
      "daugh": 4394,
      "##nel": 4395,
      "##den": 4396,
      "##irt": 4397,
      "studio": 4398,
      "III": 4399,
      "Wheeler": 4400,
      "Mal": 4401,
      "Peter": 4402,
      "##zz": 4403,
      "forward": 4404,
      "##owl": 4405,
      "spent": 4406,
      "includes": 4407,
      "##ference": 4408,
      "arrived": 4409,
      "ordered": 4410,
      "History": 4411,
      "Awards": 4412,
      "Sch": 4413,
      "##ands": 4414,
      "##aval": 4415,
      "army": 4416,
      "enough": 4417,
      "remaining": 4418,
      "block": 4419,
      "visit": 4420,
      "personal": 4421,
      "Canadian": 4422,
      "Angel": 4423,
      "##stein": 4424,
      "Navy": 4425,
      "male": 4426,
      "##fect": 4427,
      "##lor": 4428,
      "##onse": 4429,
      "##rick": 4430,
      "sometimes": 4431,
      "mixed": 4432,
      "Off": 4433,
      "Ter": 4434,
      "UK": 4435,
      "di": 4436,
      "##aut": 4437,
      "##back": 4438,
      "##oul": 4439,
      "come": 4440,
      "complete": 4441,
      "approximately": 4442,
      "reviews": 4443,
      "required": 4444,
      "Associ": 4445,
      "lower": 4446,
      "latter": 4447,
      "##ios": 4448,
      "touch": 4449,
      "Star": 4450,
      "##quar": 4451,
      "imm": 4452,
      "center": 4453,
      "Hot": 4454,
      "Penn": 4455,
      "Soc": 4456,
      "Tel": 4457,
      "##lymp": 4458,
      "##ults": 4459,
      "##agon": 4460,
      "Str": 4461,
      "remain": 4462,
      "beginning": 4463,
      "Africa": 4464,
      "Coun": 4465,
      "Olymp": 4466,
      "rail": 4467,
      "##down": 4468,
      "##inist": 4469,
      "##onc": 4470,
      "##orial": 4471,
      "##stant": 4472,
      "##aby": 4473,
      "2000": 4474,
      "reveal": 4475,
      "##ports": 4476,
      "Virgin": 4477,
      "38": 4478,
      "Creek": 4479,
      "journ": 4480,
      "sem": 4481,
      "woman": 4482,
      "Stud": 4483,
      "decision": 4484,
      "limited": 4485,
      "Nort": 4486,
      "##to": 4487,
      "##under": 4488,
      "dead": 4489,
      "Stev": 4490,
      "usually": 4491,
      "better": 4492,
      "students": 4493,
      "slow": 4494,
      "additional": 4495,
      "changes": 4496,
      "Regiment": 4497,
      "Rachel": 4498,
      "##iest": 4499,
      "##edy": 4500,
      "##ecting": 4501,
      "president": 4502,
      "running": 4503,
      "response": 4504,
      "##oor": 4505,
      "##zy": 4506,
      "##urg": 4507,
      "##adron": 4508,
      "##ease": 4509,
      "ended": 4510,
      "positive": 4511,
      "Scott": 4512,
      "concern": 4513,
      "larger": 4514,
      "Award": 4515,
      "Je": 4516,
      "TV": 4517,
      "mention": 4518,
      "sch": 4519,
      "##erat": 4520,
      "quest": 4521,
      "supported": 4522,
      "magazine": 4523,
      "Fort": 4524,
      "Jer": 4525,
      "Mer": 4526,
      "wide": 4527,
      "##ney": 4528,
      "depression": 4529,
      "notes": 4530,
      "score": 4531,
      "police": 4532,
      "type": 4533,
      "Charles": 4534,
      "observ": 4535,
      "pressure": 4536,
      "prior": 4537,
      "birth": 4538,
      "##reak": 4539,
      "##enty": 4540,
      "tex": 4541,
      "birds": 4542,
      "##me": 4543,
      "##inct": 4544,
      "shown": 4545,
      "related": 4546,
      "Frank": 4547,
      "1995": 4548,
      "Billboard": 4549,
      "lyric": 4550,
      "75": 4551,
      "face": 4552,
      "ur": 4553,
      "##uments": 4554,
      "##rief": 4555,
      "feature": 4556,
      "fifth": 4557,
      "future": 4558,
      "Camp": 4559,
      "Sam": 4560,
      "Under": 4561,
      "appl": 4562,
      "provide": 4563,
      "defeated": 4564,
      "Hill": 4565,
      "Rose": 4566,
      "der": 4567,
      "staff": 4568,
      "anc": 4569,
      "discovered": 4570,
      "La": 4571,
      "Oper": 4572,
      "Pat": 4573,
      "Route": 4574,
      "sat": 4575,
      "sil": 4576,
      "section": 4577,
      "##uf": 4578,
      "##ifa": 4579,
      "temper": 4580,
      "Japan": 4581,
      "Bel": 4582,
      "FI": 4583,
      "Western": 4584,
      "cm": 4585,
      "doll": 4586,
      "##hou": 4587,
      "##bers": 4588,
      "##enon": 4589,
      "confl": 4590,
      "##riage": 4591,
      "##ishop": 4592,
      "contem": 4593,
      "becoming": 4594,
      "frequ": 4595,
      "Light": 4596,
      "word": 4597,
      "##rate": 4598,
      "##eding": 4599,
      "##rael": 4600,
      "Wood": 4601,
      "Year": 4602,
      "##gn": 4603,
      "##aring": 4604,
      "##leg": 4605,
      "##aven": 4606,
      "##unt": 4607,
      "exam": 4608,
      "##oke": 4609,
      "##oys": 4610,
      "smaller": 4611,
      "Tur": 4612,
      "domin": 4613,
      "##uing": 4614,
      "##era": 4615,
      "##itte": 4616,
      "##idents": 4617,
      "##pped": 4618,
      "intended": 4619,
      "percent": 4620,
      "screen": 4621,
      "indic": 4622,
      "colon": 4623,
      "groups": 4624,
      "idea": 4625,
      "Scientology": 4626,
      "fleet": 4627,
      "##tr": 4628,
      "##iforn": 4629,
      "themsel": 4630,
      "mostly": 4631,
      "metres": 4632,
      "conclud": 4633,
      "Haifa": 4634,
      "radio": 4635,
      "professional": 4636,
      "themselves": 4637,
      "Russ": 4638,
      "##anies": 4639,
      "##iano": 4640,
      "##ples": 4641,
      "research": 4642,
      "2016": 4643,
      "musical": 4644,
      "minutes": 4645,
      "captured": 4646,
      "referred": 4647,
      "Croat": 4648,
      "likely": 4649,
      "surface": 4650,
      "Mil": 4651,
      "Since": 4652,
      "pair": 4653,
      "##anz": 4654,
      "##anish": 4655,
      "##imate": 4656,
      "##cean": 4657,
      "##ption": 4658,
      "office": 4659,
      "Parliament": 4660,
      "largely": 4661,
      "problems": 4662,
      "Association": 4663,
      "How": 4664,
      "Sov": 4665,
      "lab": 4666,
      "link": 4667,
      "test": 4668,
      "und": 4669,
      "##ror": 4670,
      "##rom": 4671,
      "##asy": 4672,
      "##rect": 4673,
      "progress": 4674,
      "media": 4675,
      "Portug": 4676,
      "entered": 4677,
      "summer": 4678,
      "##quarters": 4679,
      "Nic": 4680,
      "Ott": 4681,
      "Ver": 4682,
      "makes": 4683,
      "##iser": 4684,
      "##isions": 4685,
      "Inf": 4686,
      "##orning": 4687,
      "moving": 4688,
      "Israel": 4689,
      "Earth": 4690,
      "Up": 4691,
      "##ship": 4692,
      "##gen": 4693,
      "contains": 4694,
      "ens": 4695,
      "money": 4696,
      "Californ": 4697,
      "constructed": 4698,
      "keep": 4699,
      "Bey": 4700,
      "fail": 4701,
      "voice": 4702,
      "##jected": 4703,
      "inn": 4704,
      "Inter": 4705,
      "sea": 4706,
      "1999": 4707,
      "account": 4708,
      "Council": 4709,
      "Haw": 4710,
      "Ross": 4711,
      "Sur": 4712,
      "nature": 4713,
      "self": 4714,
      "##iva": 4715,
      "adop": 4716,
      "##ylv": 4717,
      "effects": 4718,
      "guitar": 4719,
      "arrang": 4720,
      "Galvest": 4721,
      "celeb": 4722,
      "Galveston": 4723,
      "Over": 4724,
      "mor": 4725,
      "##sis": 4726,
      "##well": 4727,
      "##atively": 4728,
      "##icted": 4729,
      "stories": 4730,
      "Chic": 4731,
      "grant": 4732,
      "##onym": 4733,
      "majority": 4734,
      "listed": 4735,
      "ranked": 4736,
      "Jewish": 4737,
      "##kan": 4738,
      "consist": 4739,
      "create": 4740,
      "experience": 4741,
      "coin": 4742,
      "##het": 4743,
      "##urity": 4744,
      "leaving": 4745,
      "##anks": 4746,
      "Brad": 4747,
      "meth": 4748,
      "critical": 4749,
      "##hester": 4750,
      "favor": 4751,
      "schol": 4752,
      "33": 4753,
      "80": 4754,
      "Mart": 4755,
      "brief": 4756,
      "##rest": 4757,
      "##ining": 4758,
      "thus": 4759,
      "##owler": 4760,
      "##ously": 4761,
      "earth": 4762,
      "Another": 4763,
      "controll": 4764,
      "primary": 4765,
      "##eratops": 4766,
      "Serv": 4767,
      "lived": 4768,
      "##pool": 4769,
      "##ger": 4770,
      "##oud": 4771,
      "##ership": 4772,
      "always": 4773,
      "##andon": 4774,
      "deep": 4775,
      "underst": 4776,
      "films": 4777,
      "location": 4778,
      "runs": 4779,
      "officers": 4780,
      "gods": 4781,
      "agreed": 4782,
      "lyrics": 4783,
      "2nd": 4784,
      "Ben": 4785,
      "Del": 4786,
      "##awn": 4787,
      "##esh": 4788,
      "##change": 4789,
      "##ipal": 4790,
      "##teen": 4791,
      "object": 4792,
      "##ospital": 4793,
      "launched": 4794,
      "California": 4795,
      "ded": 4796,
      "##dle": 4797,
      "##aches": 4798,
      "analy": 4799,
      "##illery": 4800,
      "traff": 4801,
      "##order": 4802,
      "prem": 4803,
      "minute": 4804,
      "teams": 4805,
      "culture": 4806,
      "counter": 4807,
      "quickly": 4808,
      "Catholic": 4809,
      "Form": 4810,
      "If": 4811,
      "Mr": 4812,
      "fans": 4813,
      "##yc": 4814,
      "##uff": 4815,
      "amb": 4816,
      "meant": 4817,
      "episodes": 4818,
      "proposed": 4819,
      "occurred": 4820,
      "Chicago": 4821,
      "400": 4822,
      "Saint": 4823,
      "Te": 4824,
      "##oir": 4825,
      "##ma": 4826,
      "##ros": 4827,
      "##imum": 4828,
      "##bery": 4829,
      "whether": 4830,
      "assigned": 4831,
      "access": 4832,
      "increase": 4833,
      "suggest": 4834,
      "32": 4835,
      "Bec": 4836,
      "Latin": 4837,
      "Tre": 4838,
      "cred": 4839,
      "dram": 4840,
      "hop": 4841,
      "vot": 4842,
      "##oes": 4843,
      "##AS": 4844,
      "##umn": 4845,
      "Ital": 4846,
      "cann": 4847,
      "forms": 4848,
      "appears": 4849,
      "poet": 4850,
      "defeat": 4851,
      "changed": 4852,
      "destroyed": 4853,
      "traffic": 4854,
      "Kr": 4855,
      "Nix": 4856,
      "log": 4857,
      "tons": 4858,
      "##mas": 4859,
      "##iant": 4860,
      "trade": 4861,
      "commission": 4862,
      "Arch": 4863,
      "longer": 4864,
      "Central": 4865,
      "Enter": 4866,
      "meaning": 4867,
      "Mey": 4868,
      "Os": 4869,
      "Sever": 4870,
      "bound": 4871,
      "job": 4872,
      "mom": 4873,
      "##tained": 4874,
      "##anced": 4875,
      "##ortun": 4876,
      "princ": 4877,
      "Alice": 4878,
      "theme": 4879,
      "numbers": 4880,
      "Scot": 4881,
      "##undred": 4882,
      "soldiers": 4883,
      "competition": 4884,
      "nucle": 4885,
      "Northern": 4886,
      "Camb": 4887,
      "Dj": 4888,
      "Tex": 4889,
      "bomb": 4890,
      "girl": 4891,
      "kil": 4892,
      "lo": 4893,
      "##ón": 4894,
      "asp": 4895,
      "##thing": 4896,
      "reach": 4897,
      "leave": 4898,
      "##raf": 4899,
      "##lands": 4900,
      "attract": 4901,
      "newsp": 4902,
      "acqu": 4903,
      "carried": 4904,
      "awarded": 4905,
      "focus": 4906,
      "300": 4907,
      "##itual": 4908,
      "1998": 4909,
      "concert": 4910,
      "consider": 4911,
      "conducted": 4912,
      "private": 4913,
      "daughter": 4914,
      "70": 4915,
      "Jam": 4916,
      "Tw": 4917,
      "natural": 4918,
      "##ken": 4919,
      "##NA": 4920,
      "##anas": 4921,
      "##rown": 4922,
      "env": 4923,
      "Alkan": 4924,
      "overall": 4925,
      "records": 4926,
      "Second": 4927,
      "subsequently": 4928,
      "BC": 4929,
      "Cour": 4930,
      "Dep": 4931,
      "Liver": 4932,
      "Villa": 4933,
      "cause": 4934,
      "emer": 4935,
      "ran": 4936,
      "ult": 4937,
      "##gian": 4938,
      "##itation": 4939,
      "tourn": 4940,
      "thick": 4941,
      "##usband": 4942,
      "deg": 4943,
      "plans": 4944,
      "dism": 4945,
      "anti": 4946,
      "fighting": 4947,
      "current": 4948,
      "Its": 4949,
      "box": 4950,
      "kind": 4951,
      "lay": 4952,
      "sus": 4953,
      "tar": 4954,
      "takes": 4955,
      "##itor": 4956,
      "##itude": 4957,
      "rein": 4958,
      "whole": 4959,
      "##aging": 4960,
      "shoot": 4961,
      "uns": 4962,
      "1993": 4963,
      "election": 4964,
      "Battle": 4965,
      "Polish": 4966,
      "influence": 4967,
      "commented": 4968,
      "broadcast": 4969,
      "double": 4970,
      "industry": 4971,
      "Go": 4972,
      "Minn": 4973,
      "Sol": 4974,
      "Tay": 4975,
      "Tour": 4976,
      "##lo": 4977,
      "serious": 4978,
      "bring": 4979,
      "finally": 4980,
      "asked": 4981,
      "Nixon": 4982,
      "Liverpool": 4983,
      "1st": 4984,
      "jud": 4985,
      "upper": 4986,
      "##bar": 4987,
      "throw": 4988,
      "##owers": 4989,
      "##alled": 4990,
      "##ells": 4991,
      "compared": 4992,
      "centre": 4993,
      "ending": 4994,
      "Somers": 4995,
      "##stitute": 4996,
      "greater": 4997,
      "method": 4998,
      "47": 4999,
      "Back": 5000,
      "Lady": 5001,
      "done": 5002,
      "purch": 5003,
      "##eds": 5004,
      "##arch": 5005,
      "##olk": 5006,
      "##istics": 5007,
      "unable": 5008,
      "flight": 5009,
      "##ologist": 5010,
      "positions": 5011,
      "accomp": 5012,
      "##itting": 5013,
      "married": 5014,
      "##aught": 5015,
      "##ittee": 5016,
      "Texas": 5017,
      "39": 5018,
      "Foot": 5019,
      "Hum": 5020,
      "athlet": 5021,
      "our": 5022,
      "tor": 5023,
      "##ees": 5024,
      "##ny": 5025,
      "##II": 5026,
      "refl": 5027,
      "##aily": 5028,
      "##ounts": 5029,
      "buildings": 5030,
      "market": 5031,
      "standard": 5032,
      "Mosley": 5033,
      "rapid": 5034,
      "Somerset": 5035,
      "Rob": 5036,
      "Tropical": 5037,
      "Vict": 5038,
      "got": 5039,
      "yet": 5040,
      "party": 5041,
      "earned": 5042,
      "books": 5043,
      "Out": 5044,
      "Tenn": 5045,
      "dom": 5046,
      "dark": 5047,
      "lif": 5048,
      "living": 5049,
      "##TV": 5050,
      "20th": 5051,
      "Three": 5052,
      "1996": 5053,
      "phot": 5054,
      "begins": 5055,
      "issued": 5056,
      "Busch": 5057,
      "Bob": 5058,
      "Sal": 5059,
      "hair": 5060,
      "mur": 5061,
      "##rat": 5062,
      "##inated": 5063,
      "##rey": 5064,
      "##ada": 5065,
      "##ria": 5066,
      "intell": 5067,
      "directly": 5068,
      "marked": 5069,
      "terms": 5070,
      "cathedral": 5071,
      "traditional": 5072,
      "Lake": 5073,
      "Met": 5074,
      "sal": 5075,
      "##house": 5076,
      "##ental": 5077,
      "##umed": 5078,
      "health": 5079,
      "scenes": 5080,
      "movement": 5081,
      "Spanish": 5082,
      "Christmas": 5083,
      "marriage": 5084,
      "status": 5085,
      "African": 5086,
      "Taylor": 5087,
      "Fowler": 5088,
      "Gar": 5089,
      "path": 5090,
      "slight": 5091,
      "Command": 5092,
      "helped": 5093,
      "portr": 5094,
      "figure": 5095,
      "Several": 5096,
      "90": 5097,
      "Bas": 5098,
      "Cross": 5099,
      "Dem": 5100,
      "Nor": 5101,
      "Tem": 5102,
      "batter": 5103,
      "cur": 5104,
      "norm": 5105,
      "pil": 5106,
      "##rical": 5107,
      "##lin": 5108,
      "##itch": 5109,
      "##adm": 5110,
      "##aded": 5111,
      "##rovers": 5112,
      "##odon": 5113,
      "##eway": 5114,
      "Storm": 5115,
      "sched": 5116,
      "##embly": 5117,
      "starting": 5118,
      "attacks": 5119,
      "schools": 5120,
      "experi": 5121,
      "suffered": 5122,
      "inspired": 5123,
      "information": 5124,
      "planned": 5125,
      "Soviet": 5126,
      "42": 5127,
      "Cont": 5128,
      "Ill": 5129,
      "Just": 5130,
      "giving": 5131,
      "husband": 5132,
      "##ils": 5133,
      "##cend": 5134,
      "Franc": 5135,
      "performances": 5136,
      "associated": 5137,
      "source": 5138,
      "Infantry": 5139,
      "Jane": 5140,
      "Po": 5141,
      "division": 5142,
      "##bury": 5143,
      "##oration": 5144,
      "##imb": 5145,
      "##ify": 5146,
      "plot": 5147,
      "closed": 5148,
      "abandon": 5149,
      "##ibly": 5150,
      "##athan": 5151,
      "presented": 5152,
      "transl": 5153,
      "prevent": 5154,
      "condoms": 5155,
      "initial": 5156,
      "Party": 5157,
      "machine": 5158,
      "Lou": 5159,
      "Rel": 5160,
      "raised": 5161,
      "room": 5162,
      "via": 5163,
      "##ien": 5164,
      "##atre": 5165,
      "##isk": 5166,
      "##ican": 5167,
      "##anded": 5168,
      "##essa": 5169,
      "Inn": 5170,
      "image": 5171,
      "presence": 5172,
      "polic": 5173,
      "Trans": 5174,
      "greatest": 5175,
      "Series": 5176,
      "education": 5177,
      "Cast": 5178,
      "Long": 5179,
      "Six": 5180,
      "fell": 5181,
      "hundred": 5182,
      "pay": 5183,
      "wound": 5184,
      "##sylv": 5185,
      "##like": 5186,
      "##erve": 5187,
      "inters": 5188,
      "##olf": 5189,
      "chall": 5190,
      "unit": 5191,
      "##anger": 5192,
      "uses": 5193,
      "writers": 5194,
      "nearby": 5195,
      "continue": 5196,
      "Club": 5197,
      "annual": 5198,
      "Paris": 5199,
      "Carolina": 5200,
      "Pennsylv": 5201,
      "Virginia": 5202,
      "Rosebery": 5203,
      "Che": 5204,
      "Live": 5205,
      "Open": 5206,
      "Ram": 5207,
      "park": 5208,
      "talk": 5209,
      "##iated": 5210,
      "##pted": 5211,
      "complex": 5212,
      "##iami": 5213,
      "collection": 5214,
      "covered": 5215,
      "Acad": 5216,
      "cyclone": 5217,
      "Mill": 5218,
      "hot": 5219,
      "habit": 5220,
      "##ergy": 5221,
      "##itect": 5222,
      "##ether": 5223,
      "##imony": 5224,
      "space": 5225,
      "enj": 5226,
      "composed": 5227,
      "weap": 5228,
      "College": 5229,
      "services": 5230,
      "Queen": 5231,
      "Meyer": 5232,
      "Er": 5233,
      "Water": 5234,
      "bodies": 5235,
      "##án": 5236,
      "##iny": 5237,
      "##atives": 5238,
      "##ires": 5239,
      "really": 5240,
      "sev": 5241,
      "plat": 5242,
      "1997": 5243,
      "numerous": 5244,
      "##inner": 5245,
      "metal": 5246,
      "extended": 5247,
      "producer": 5248,
      "commander": 5249,
      "##mpire": 5250,
      "waters": 5251,
      "figures": 5252,
      "territory": 5253,
      "##oncé": 5254,
      "Beyoncé": 5255,
      "Dam": 5256,
      "Jose": 5257,
      "Miami": 5258,
      "##rid": 5259,
      "things": 5260,
      "##uries": 5261,
      "##anta": 5262,
      "script": 5263,
      "Germany": 5264,
      "Museum": 5265,
      "##ipped": 5266,
      "something": 5267,
      "vocals": 5268,
      "proteins": 5269,
      "44": 5270,
      "Games": 5271,
      "Nations": 5272,
      "har": 5273,
      "##eign": 5274,
      "Their": 5275,
      "##ricket": 5276,
      "subject": 5277,
      "amount": 5278,
      "artist": 5279,
      "operation": 5280,
      "financ": 5281,
      "necess": 5282,
      "investig": 5283,
      "Cons": 5284,
      "morning": 5285,
      "pick": 5286,
      "saf": 5287,
      "tax": 5288,
      "##ging": 5289,
      "##ols": 5290,
      "concept": 5291,
      "##estival": 5292,
      "##apo": 5293,
      "##overs": 5294,
      "promin": 5295,
      "incor": 5296,
      "Through": 5297,
      "companies": 5298,
      "highly": 5299,
      "strength": 5300,
      "attacked": 5301,
      "attempts": 5302,
      "Somal": 5303,
      "text": 5304,
      "Service": 5305,
      "Cer": 5306,
      "Crit": 5307,
      "Lo": 5308,
      "bad": 5309,
      "era": 5310,
      "piano": 5311,
      "##pole": 5312,
      "##lim": 5313,
      "##vement": 5314,
      "##adium": 5315,
      "prec": 5316,
      "##ribution": 5317,
      "symb": 5318,
      "artillery": 5319,
      "##ograph": 5320,
      "speed": 5321,
      "confir": 5322,
      "immediately": 5323,
      "##admium": 5324,
      "Pennsylvania": 5325,
      "AI": 5326,
      "Major": 5327,
      "purs": 5328,
      "##hold": 5329,
      "##isation": 5330,
      "##isher": 5331,
      "##omer": 5332,
      "stone": 5333,
      "spir": 5334,
      "##oint": 5335,
      "distance": 5336,
      "allowing": 5337,
      "tracks": 5338,
      "powerful": 5339,
      "situation": 5340,
      "Jackson": 5341,
      "nuclear": 5342,
      "Squadron": 5343,
      "removed": 5344,
      "##track": 5345,
      "kilomet": 5346,
      "51": 5347,
      "Li": 5348,
      "Pet": 5349,
      "Rad": 5350,
      "dig": 5351,
      "kick": 5352,
      "rate": 5353,
      "search": 5354,
      "##onna": 5355,
      "inside": 5356,
      "##andid": 5357,
      "##aine": 5358,
      "##iple": 5359,
      "offered": 5360,
      "secret": 5361,
      "blood": 5362,
      "studies": 5363,
      "variety": 5364,
      "friends": 5365,
      "needed": 5366,
      "peaked": 5367,
      "sexual": 5368,
      "selected": 5369,
      "purp": 5370,
      "Scotland": 5371,
      "susp": 5372,
      "Victor": 5373,
      "Bet": 5374,
      "Both": 5375,
      "Final": 5376,
      "Los": 5377,
      "Sir": 5378,
      "native": 5379,
      "##elop": 5380,
      "##rial": 5381,
      "recover": 5382,
      "182": 5383,
      "##izing": 5384,
      "1991": 5385,
      "means": 5386,
      "coach": 5387,
      "Chris": 5388,
      "countries": 5389,
      "headquarters": 5390,
      "attempted": 5391,
      "copies": 5392,
      "Football": 5393,
      "Bol": 5394,
      "rule": 5395,
      "##tered": 5396,
      "ang": 5397,
      "China": 5398,
      "scoring": 5399,
      "advant": 5400,
      "hands": 5401,
      "casual": 5402,
      "widely": 5403,
      "responsible": 5404,
      "respectively": 5405,
      "Alex": 5406,
      "Land": 5407,
      "max": 5408,
      "##aen": 5409,
      "##ding": 5410,
      "##hood": 5411,
      "##ening": 5412,
      "##send": 5413,
      "controvers": 5414,
      "interact": 5415,
      "grand": 5416,
      "##annel": 5417,
      "sets": 5418,
      "appearances": 5419,
      "extrem": 5420,
      "describes": 5421,
      "Anderson": 5422,
      "genus": 5423,
      "higher": 5424,
      "touchdown": 5425,
      "Department": 5426,
      "Are": 5427,
      "Hear": 5428,
      "Post": 5429,
      "##arp": 5430,
      "##iron": 5431,
      "##aped": 5432,
      "##ift": 5433,
      "canc": 5434,
      "1992": 5435,
      "constit": 5436,
      "course": 5437,
      "middle": 5438,
      "magn": 5439,
      "observed": 5440,
      "Corps": 5441,
      "Braat": 5442,
      "heavily": 5443,
      "Bre": 5444,
      "Nes": 5445,
      "Time": 5446,
      "ben": 5447,
      "ess": 5448,
      "fill": 5449,
      "xenon": 5450,
      "##MS": 5451,
      "##ado": 5452,
      "seem": 5453,
      "relief": 5454,
      "compos": 5455,
      "display": 5456,
      "1994": 5457,
      "below": 5458,
      "sixth": 5459,
      "reduced": 5460,
      "##shire": 5461,
      "Young": 5462,
      "administ": 5463,
      "meeting": 5464,
      "enjoy": 5465,
      "37": 5466,
      "48": 5467,
      "76": 5468,
      "Like": 5469,
      "Midd": 5470,
      "##esota": 5471,
      "stay": 5472,
      "##ulations": 5473,
      "##umber": 5474,
      "active": 5475,
      "syn": 5476,
      "blue": 5477,
      "singer": 5478,
      "matches": 5479,
      "advance": 5480,
      "resulted": 5481,
      "opportun": 5482,
      "audience": 5483,
      "concluded": 5484,
      "Minnesota": 5485,
      "Pit": 5486,
      "corn": 5487,
      "hour": 5488,
      "paper": 5489,
      "wing": 5490,
      "##light": 5491,
      "##uated": 5492,
      "##arrow": 5493,
      "##ena": 5494,
      "##akapo": 5495,
      "true": 5496,
      "##inkel": 5497,
      "instit": 5498,
      "completely": 5499,
      "activity": 5500,
      "activities": 5501,
      "Smith": 5502,
      "3rd": 5503,
      "Av": 5504,
      "Green": 5505,
      "Jim": 5506,
      "Jul": 5507,
      "Southern": 5508,
      "cer": 5509,
      "dress": 5510,
      "pu": 5511,
      "##isl": 5512,
      "##room": 5513,
      "stating": 5514,
      "##emic": 5515,
      "##utch": 5516,
      "disapp": 5517,
      "managed": 5518,
      "##athus": 5519,
      "graph": 5520,
      "Center": 5521,
      "Sea": 5522,
      "Townsend": 5523,
      "revealed": 5524,
      "question": 5525,
      "contemporary": 5526,
      "Hawai": 5527,
      "Italian": 5528,
      "Meyerbe": 5529,
      "Dist": 5530,
      "Ka": 5531,
      "ver": 5532,
      "##yr": 5533,
      "##ād": 5534,
      "##hew": 5535,
      "##enge": 5536,
      "##ocr": 5537,
      "##ervation": 5538,
      "entr": 5539,
      "drum": 5540,
      "refused": 5541,
      "levels": 5542,
      "declared": 5543,
      "trees": 5544,
      "separate": 5545,
      "quality": 5546,
      "Meyerbeer": 5547,
      "Cat": 5548,
      "Fur": 5549,
      "Finkel": 5550,
      "iron": 5551,
      "narr": 5552,
      "pun": 5553,
      "rout": 5554,
      "##bird": 5555,
      "intern": 5556,
      "##acher": 5557,
      "##essions": 5558,
      "Thunder": 5559,
      "##ounds": 5560,
      "appar": 5561,
      "##rowd": 5562,
      "1970": 5563,
      "brown": 5564,
      "Force": 5565,
      "approach": 5566,
      "Walpole": 5567,
      "Because": 5568,
      "Finkelstein": 5569,
      "52": 5570,
      "Hind": 5571,
      "Tessa": 5572,
      "Yue": 5573,
      "lot": 5574,
      "rhy": 5575,
      "##ingu": 5576,
      "##asc": 5577,
      "today": 5578,
      "##estic": 5579,
      "recent": 5580,
      "reception": 5581,
      "##ogue": 5582,
      "##rawn": 5583,
      "##peror": 5584,
      "university": 5585,
      "webs": 5586,
      "peace": 5587,
      "Shiva": 5588,
      "background": 5589,
      "150": 5590,
      "parents": 5591,
      "carry": 5592,
      "featuring": 5593,
      "respond": 5594,
      "model": 5595,
      "typically": 5596,
      "historical": 5597,
      "vocal": 5598,
      "Om": 5599,
      "Pre": 5600,
      "Sar": 5601,
      "Wild": 5602,
      "aw": 5603,
      "chem": 5604,
      "walk": 5605,
      "##ux": 5606,
      "##stone": 5607,
      "##road": 5608,
      "##lean": 5609,
      "beat": 5610,
      "displ": 5611,
      "plays": 5612,
      "##orship": 5613,
      "Arg": 5614,
      "actions": 5615,
      "emot": 5616,
      "##aha": 5617,
      "Blue": 5618,
      "conditions": 5619,
      "expected": 5620,
      "Charl": 5621,
      "issues": 5622,
      "vehic": 5623,
      "Society": 5624,
      "Nicole": 5625,
      "Ottoman": 5626,
      "Illino": 5627,
      "Balt": 5628,
      "Def": 5629,
      "fear": 5630,
      "##FA": 5631,
      "inh": 5632,
      "##eman": 5633,
      "##oses": 5634,
      "##ipl": 5635,
      "becomes": 5636,
      "attention": 5637,
      "weaken": 5638,
      "mainly": 5639,
      "Spec": 5640,
      "famil": 5641,
      "efforts": 5642,
      "impact": 5643,
      "houses": 5644,
      "34": 5645,
      "Turn": 5646,
      "du": 5647,
      "nation": 5648,
      "royal": 5649,
      "wear": 5650,
      "thr": 5651,
      "##ams": 5652,
      "residents": 5653,
      "offer": 5654,
      "##ocks": 5655,
      "specim": 5656,
      "##ype": 5657,
      "instr": 5658,
      "condom": 5659,
      "Highway": 5660,
      "strugg": 5661,
      "Court": 5662,
      "Braathens": 5663,
      "Burn": 5664,
      "Hal": 5665,
      "Tod": 5666,
      "ir": 5667,
      "sn": 5668,
      "sense": 5669,
      "##iro": 5670,
      "##BA": 5671,
      "recomm": 5672,
      "actually": 5673,
      "calling": 5674,
      "Add": 5675,
      "titles": 5676,
      "elev": 5677,
      "demonst": 5678,
      "architect": 5679,
      "Hait": 5680,
      "##tainment": 5681,
      "soundtrack": 5682,
      "protein": 5683,
      "##ufact": 5684,
      "board": 5685,
      "crowd": 5686,
      "overs": 5687,
      "roles": 5688,
      "##aise": 5689,
      "##bon": 5690,
      "##onents": 5691,
      "##iles": 5692,
      "thous": 5693,
      "alt": 5694,
      "altern": 5695,
      "##appen": 5696,
      "suc": 5697,
      "scient": 5698,
      "1990": 5699,
      "seasons": 5700,
      "write": 5701,
      "defend": 5702,
      "Ann": 5703,
      "##ledge": 5704,
      "Johnson": 5705,
      "Columb": 5706,
      "accepted": 5707,
      "struck": 5708,
      "achieved": 5709,
      "Government": 5710,
      "Portugues": 5711,
      "cannot": 5712,
      "Fam": 5713,
      "Fey": 5714,
      "Lar": 5715,
      "Mat": 5716,
      "Mog": 5717,
      "Of": 5718,
      "nin": 5719,
      "##ka": 5720,
      "##ications": 5721,
      "##ette": 5722,
      "##utions": 5723,
      "fruit": 5724,
      "##essor": 5725,
      "##berg": 5726,
      "resc": 5727,
      "##ension": 5728,
      "shell": 5729,
      "types": 5730,
      "##oof": 5731,
      "practice": 5732,
      "Vietnam": 5733,
      "reinfor": 5734,
      "Portuguese": 5735,
      "Little": 5736,
      "dyn": 5737,
      "fiction": 5738,
      "lb": 5739,
      "mel": 5740,
      "rough": 5741,
      "##wen": 5742,
      "##eller": 5743,
      "##irection": 5744,
      "181": 5745,
      "scul": 5746,
      "musc": 5747,
      "Att": 5748,
      "##anning": 5749,
      "distinct": 5750,
      "Spain": 5751,
      "Clark": 5752,
      "##echan": 5753,
      "avoid": 5754,
      "infantry": 5755,
      "primarily": 5756,
      "Secret": 5757,
      "sequence": 5758,
      "Academy": 5759,
      "Book": 5760,
      "Civil": 5761,
      "Fer": 5762,
      "Group": 5763,
      "Tint": 5764,
      "sales": 5765,
      "plant": 5766,
      "spread": 5767,
      "Engine": 5768,
      "elected": 5769,
      "1986": 5770,
      "owned": 5771,
      "twenty": 5772,
      "combat": 5773,
      "slightly": 5774,
      "Horse": 5775,
      "Sarn": 5776,
      "Wels": 5777,
      "rights": 5778,
      "sister": 5779,
      "##mond": 5780,
      "rear": 5781,
      "heart": 5782,
      "sust": 5783,
      "sport": 5784,
      "inches": 5785,
      "scale": 5786,
      "offensive": 5787,
      "concent": 5788,
      "county": 5789,
      "Prince": 5790,
      "legal": 5791,
      "northeast": 5792,
      "affected": 5793,
      "##ceeded": 5794,
      "Captain": 5795,
      "expressed": 5796,
      "##onymous": 5797,
      "Louis": 5798,
      "Dou": 5799,
      "Tri": 5800,
      "cam": 5801,
      "farm": 5802,
      "mis": 5803,
      "sout": 5804,
      "words": 5805,
      "##bed": 5806,
      "##AA": 5807,
      "##ushed": 5808,
      "##ella": 5809,
      "180": 5810,
      "showed": 5811,
      "officer": 5812,
      "neigh": 5813,
      "Prod": 5814,
      "Review": 5815,
      "Nesb": 5816,
      "Tintin": 5817,
      "Welsh": 5818,
      "Empire": 5819,
      "Kn": 5820,
      "Lock": 5821,
      "Manc": 5822,
      "Sil": 5823,
      "Zhou": 5824,
      "er": 5825,
      "##met": 5826,
      "##mitted": 5827,
      "##ys": 5828,
      "##ompl": 5829,
      "forest": 5830,
      "##ortal": 5831,
      "##astic": 5832,
      "ability": 5833,
      "Though": 5834,
      "themes": 5835,
      "contrast": 5836,
      "Adm": 5837,
      "battalion": 5838,
      "Andrew": 5839,
      "Orig": 5840,
      "combined": 5841,
      "excav": 5842,
      "Varanas": 5843,
      "newspaper": 5844,
      "Ceres": 5845,
      "##ironment": 5846,
      "Varanasi": 5847,
      "Ros": 5848,
      "Yank": 5849,
      "horse": 5850,
      "mess": 5851,
      "ple": 5852,
      "##orus": 5853,
      "##enant": 5854,
      "thir": 5855,
      "##igan": 5856,
      "##ovic": 5857,
      "Commun": 5858,
      "titled": 5859,
      "cultural": 5860,
      "Odaen": 5861,
      "incorpor": 5862,
      "casualties": 5863,
      "Nesbitt": 5864,
      "49": 5865,
      "Way": 5866,
      "ox": 5867,
      "says": 5868,
      "##mark": 5869,
      "##br": 5870,
      "##ano": 5871,
      "reign": 5872,
      "remark": 5873,
      "produce": 5874,
      "actor": 5875,
      "grass": 5876,
      "continues": 5877,
      "Conf": 5878,
      "Eva": 5879,
      "earliest": 5880,
      "mountain": 5881,
      "##while": 5882,
      "Angeles": 5883,
      "mentioned": 5884,
      "ancient": 5885,
      "murder": 5886,
      "cerem": 5887,
      "Illinois": 5888,
      "Odaenathus": 5889,
      "Boy": 5890,
      "Direct": 5891,
      "Jos": 5892,
      "Rh": 5893,
      "Wash": 5894,
      "fully": 5895,
      "mission": 5896,
      "narrow": 5897,
      "##uous": 5898,
      "##Mont": 5899,
      "##inus": 5900,
      "##acts": 5901,
      "championship": 5902,
      "disease": 5903,
      "manufact": 5904,
      "##eball": 5905,
      "##ancy": 5906,
      "artists": 5907,
      "resulting": 5908,
      "deliv": 5909,
      "Records": 5910,
      "authorities": 5911,
      "influenced": 5912,
      "DuMont": 5913,
      "flooding": 5914,
      "Olympic": 5915,
      "adopted": 5916,
      "advantage": 5917,
      "Mogad": 5918,
      "Sarnia": 5919,
      "65": 5920,
      "Sen": 5921,
      "wild": 5922,
      "##St": 5923,
      "##iled": 5924,
      "reports": 5925,
      "assault": 5926,
      "basis": 5927,
      "Prot": 5928,
      "Colon": 5929,
      "Perón": 5930,
      "represented": 5931,
      "Apple": 5932,
      "Max": 5933,
      "NC": 5934,
      "Pop": 5935,
      "bott": 5936,
      "candid": 5937,
      "mile": 5938,
      "sides": 5939,
      "##lings": 5940,
      "##ora": 5941,
      "toward": 5942,
      "##ura": 5943,
      "##use": 5944,
      "alone": 5945,
      "##oper": 5946,
      "coming": 5947,
      "exhib": 5948,
      "spl": 5949,
      "News": 5950,
      "defense": 5951,
      "bridge": 5952,
      "##helm": 5953,
      "begin": 5954,
      "viewers": 5955,
      "Week": 5956,
      "square": 5957,
      "letters": 5958,
      "withdraw": 5959,
      "tower": 5960,
      "tournament": 5961,
      "Thunderbird": 5962,
      "Manchester": 5963,
      "Four": 5964,
      "Home": 5965,
      "Horn": 5966,
      "Ocean": 5967,
      "SR": 5968,
      "direction": 5969,
      "hol": 5970,
      "kakapo": 5971,
      "nest": 5972,
      "rat": 5973,
      "vo": 5974,
      "yellow": 5975,
      "##rane": 5976,
      "##writ": 5977,
      "##bit": 5978,
      "##ares": 5979,
      "insc": 5980,
      "##olec": 5981,
      "##ims": 5982,
      "armed": 5983,
      "relatively": 5984,
      "18th": 5985,
      "workers": 5986,
      "founded": 5987,
      "alongside": 5988,
      "occasion": 5989,
      "effort": 5990,
      "northwest": 5991,
      "encour": 5992,
      "illust": 5993,
      "torped": 5994,
      "Washington": 5995,
      "Leg": 5996,
      "Van": 5997,
      "cadmium": 5998,
      "hors": 5999,
      "losing": 6000,
      "mechan": 6001,
      "rang": 6002,
      "sac": 6003,
      "##aith": 6004,
      "##bour": 6005,
      "##ulate": 6006,
      "##iana": 6007,
      "contain": 6008,
      "##olling": 6009,
      "adj": 6010,
      "univers": 6011,
      "##ricult": 6012,
      "##ibr": 6013,
      "attended": 6014,
      "emph": 6015,
      "1988": 6016,
      "officially": 6017,
      "edition": 6018,
      "tried": 6019,
      "organized": 6020,
      "capture": 6021,
      "individuals": 6022,
      "transferred": 6023,
      "physical": 6024,
      "Turk": 6025,
      "Mass": 6026,
      "Sum": 6027,
      "ast": 6028,
      "##sen": 6029,
      "##kare": 6030,
      "##adel": 6031,
      "proved": 6032,
      "##abama": 6033,
      "##acks": 6034,
      "##gend": 6035,
      "perman": 6036,
      "Alabama": 6037,
      "acting": 6038,
      "neut": 6039,
      "require": 6040,
      "winter": 6041,
      "behav": 6042,
      "pattern": 6043,
      "officials": 6044,
      "Mean": 6045,
      "measure": 6046,
      "surrounding": 6047,
      "rainfall": 6048,
      "dedicated": 6049,
      "Joseph": 6050,
      "Omaha": 6051,
      "Mogadish": 6052,
      "46": 6053,
      "64": 6054,
      "Bh": 6055,
      "Bu": 6056,
      "Bon": 6057,
      "Dest": 6058,
      "Gall": 6059,
      "Kent": 6060,
      "MD": 6061,
      "feder": 6062,
      "lives": 6063,
      "##och": 6064,
      "##rol": 6065,
      "##imore": 6066,
      "energy": 6067,
      "Arm": 6068,
      "doing": 6069,
      "suppl": 6070,
      "edge": 6071,
      "Edward": 6072,
      "conflict": 6073,
      "Fant": 6074,
      "Lord": 6075,
      "folk": 6076,
      "mind": 6077,
      "raid": 6078,
      "wa": 6079,
      "##ping": 6080,
      "##ply": 6081,
      "##lers": 6082,
      "##ban": 6083,
      "##inary": 6084,
      "##edar": 6085,
      "##itness": 6086,
      "chief": 6087,
      "shape": 6088,
      "##izes": 6089,
      "follows": 6090,
      "1960s": 6091,
      "Independ": 6092,
      "designated": 6093,
      "possibly": 6094,
      "shortly": 6095,
      "Reception": 6096,
      "society": 6097,
      "divided": 6098,
      "function": 6099,
      "dissip": 6100,
      "Helms": 6101,
      "intensity": 6102,
      "Innis": 6103,
      "financial": 6104,
      "Argent": 6105,
      "Mogadishu": 6106,
      "Bowl": 6107,
      "Cra": 6108,
      "Journ": 6109,
      "Lis": 6110,
      "Prem": 6111,
      "border": 6112,
      "faced": 6113,
      "paid": 6114,
      "your": 6115,
      "##ij": 6116,
      "##iate": 6117,
      "##kn": 6118,
      "##RA": 6119,
      "images": 6120,
      "product": 6121,
      "albums": 6122,
      "1980s": 6123,
      "1940": 6124,
      "1964": 6125,
      "color": 6126,
      "simply": 6127,
      "older": 6128,
      "legisl": 6129,
      "repe": 6130,
      "Histor": 6131,
      "letter": 6132,
      "sources": 6133,
      "Wilhelm": 6134,
      "McCall": 6135,
      "eye": 6136,
      "determined": 6137,
      "journal": 6138,
      "maximum": 6139,
      "End": 6140,
      "Hu": 6141,
      "aid": 6142,
      "kept": 6143,
      "master": 6144,
      "##VD": 6145,
      "##enture": 6146,
      "onto": 6147,
      "##agan": 6148,
      "comedy": 6149,
      "places": 6150,
      "##ipment": 6151,
      "advert": 6152,
      "agg": 6153,
      "##ugby": 6154,
      "movie": 6155,
      "broken": 6156,
      "portion": 6157,
      "Assembly": 6158,
      "doub": 6159,
      "piece": 6160,
      "potential": 6161,
      "sculpt": 6162,
      "emphas": 6163,
      "Fin": 6164,
      "Fleet": 6165,
      "Jup": 6166,
      "Ven": 6167,
      "cities": 6168,
      "dut": 6169,
      "hom": 6170,
      "##cy": 6171,
      "##wide": 6172,
      "##aming": 6173,
      "stra": 6174,
      "frag": 6175,
      "##udd": 6176,
      "appeal": 6177,
      "charge": 6178,
      "##azz": 6179,
      "Commission": 6180,
      "argued": 6181,
      "PlaySt": 6182,
      "domestic": 6183,
      "PlayStation": 6184,
      "55": 6185,
      "53": 6186,
      "Bir": 6187,
      "FA": 6188,
      "Good": 6189,
      "Night": 6190,
      "Rih": 6191,
      "grew": 6192,
      "##bl": 6193,
      "##isters": 6194,
      "##ety": 6195,
      "step": 6196,
      "projects": 6197,
      "##istry": 6198,
      "spot": 6199,
      "##asty": 6200,
      "content": 6201,
      "depth": 6202,
      "Common": 6203,
      "suggests": 6204,
      "authority": 6205,
      "management": 6206,
      "sites": 6207,
      "Hamels": 6208,
      "Valley": 6209,
      "Baltimore": 6210,
      "Rihanna": 6211,
      "Sky": 6212,
      "Us": 6213,
      "Writ": 6214,
      "fung": 6215,
      "gained": 6216,
      "homes": 6217,
      "hospital": 6218,
      "paint": 6219,
      "say": 6220,
      "sens": 6221,
      "wor": 6222,
      "wave": 6223,
      "##mon": 6224,
      "##ners": 6225,
      "##acement": 6226,
      "conver": 6227,
      "##osen": 6228,
      "##umes": 6229,
      "shr": 6230,
      "share": 6231,
      "prison": 6232,
      "science": 6233,
      "attend": 6234,
      "weak": 6235,
      "museum": 6236,
      "extra": 6237,
      "artic": 6238,
      "belong": 6239,
      "##engt": 6240,
      "depart": 6241,
      "Constant": 6242,
      "phil": 6243,
      "causing": 6244,
      "twice": 6245,
      "criticized": 6246,
      "structures": 6247,
      "couple": 6248,
      "Palest": 6249,
      "Djed": 6250,
      "ultimately": 6251,
      "target": 6252,
      "schedul": 6253,
      "entrance": 6254,
      "website": 6255,
      "56": 6256,
      "5th": 6257,
      "DVD": 6258,
      "Lew": 6259,
      "Lev": 6260,
      "mouth": 6261,
      "pan": 6262,
      "tur": 6263,
      "vess": 6264,
      "##iot": 6265,
      "##che": 6266,
      "deploy": 6267,
      "Step": 6268,
      "containing": 6269,
      "results": 6270,
      "##prise": 6271,
      "formation": 6272,
      "interp": 6273,
      "Anth": 6274,
      "debuted": 6275,
      "hyd": 6276,
      "dismiss": 6277,
      "intellig": 6278,
      "Jupiter": 6279,
      "Djedkare": 6280,
      "Gre": 6281,
      "Hib": 6282,
      "Kar": 6283,
      "Kore": 6284,
      "Nev": 6285,
      "Pen": 6286,
      "core": 6287,
      "cricket": 6288,
      "fast": 6289,
      "hers": 6290,
      "hun": 6291,
      "kg": 6292,
      "##mes": 6293,
      "##nes": 6294,
      "##rain": 6295,
      "##han": 6296,
      "##atur": 6297,
      "##icro": 6298,
      "##rel": 6299,
      "foreign": 6300,
      "chosen": 6301,
      "Ste": 6302,
      "Chap": 6303,
      "remix": 6304,
      "defence": 6305,
      "defensive": 6306,
      "miner": 6307,
      "1947": 6308,
      "collabor": 6309,
      "battles": 6310,
      "planet": 6311,
      "Torres": 6312,
      "opin": 6313,
      "document": 6314,
      "label": 6315,
      "43": 6316,
      "Eastern": 6317,
      "Jon": 6318,
      "Ox": 6319,
      "fix": 6320,
      "ro": 6321,
      "##ati": 6322,
      "inch": 6323,
      "##iced": 6324,
      "rejected": 6325,
      "##aved": 6326,
      "Child": 6327,
      "security": 6328,
      "consecutive": 6329,
      "Short": 6330,
      "120": 6331,
      "brigade": 6332,
      "organization": 6333,
      "standing": 6334,
      "reference": 6335,
      "growing": 6336,
      "animal": 6337,
      "buried": 6338,
      "independent": 6339,
      "granted": 6340,
      "abandoned": 6341,
      "prominent": 6342,
      "Middle": 6343,
      "##known": 6344,
      "Bull": 6345,
      "Field": 6346,
      "diam": 6347,
      "sand": 6348,
      "ven": 6349,
      "##eer": 6350,
      "##ych": 6351,
      "##ML": 6352,
      "##ocated": 6353,
      "seek": 6354,
      "Once": 6355,
      "weight": 6356,
      "##icks": 6357,
      "doct": 6358,
      "therefore": 6359,
      "student": 6360,
      "1941": 6361,
      "colony": 6362,
      "condition": 6363,
      "##ographer": 6364,
      "visited": 6365,
      "convers": 6366,
      "claims": 6367,
      "temple": 6368,
      "Airport": 6369,
      "orders": 6370,
      "encoun": 6371,
      "cells": 6372,
      "##white": 6373,
      "Scottish": 6374,
      "benef": 6375,
      "Applewhite": 6376,
      "BBC": 6377,
      "Cre": 6378,
      "Norm": 6379,
      "Op": 6380,
      "RA": 6381,
      "So": 6382,
      "SAF": 6383,
      "jump": 6384,
      "risk": 6385,
      "##mosp": 6386,
      "##icts": 6387,
      "spect": 6388,
      "newly": 6389,
      "regions": 6390,
      "##phia": 6391,
      "seconds": 6392,
      "##airs": 6393,
      "singles": 6394,
      "1987": 6395,
      "broke": 6396,
      "Forest": 6397,
      "moment": 6398,
      "wounded": 6399,
      "##adelphia": 6400,
      "##engthen": 6401,
      "SAFE": 6402,
      "41": 6403,
      "Jur": 6404,
      "ahead": 6405,
      "##ases": 6406,
      "##asters": 6407,
      "##iring": 6408,
      "reaching": 6409,
      "height": 6410,
      "Institute": 6411,
      "seems": 6412,
      "hero": 6413,
      "enemy": 6414,
      "weather": 6415,
      "Indust": 6416,
      "1970s": 6417,
      "versions": 6418,
      "solo": 6419,
      "##ushing": 6420,
      "equipment": 6421,
      "cases": 6422,
      "favour": 6423,
      "knowledge": 6424,
      "identified": 6425,
      "nominated": 6426,
      "Egyptian": 6427,
      "temperature": 6428,
      "Background": 6429,
      "9th": 6430,
      "Ban": 6431,
      "Dis": 6432,
      "Due": 6433,
      "Greek": 6434,
      "Id": 6435,
      "bud": 6436,
      "cust": 6437,
      "la": 6438,
      "males": 6439,
      "roll": 6440,
      "rare": 6441,
      "tun": 6442,
      "##ias": 6443,
      "excl": 6444,
      "contact": 6445,
      "unique": 6446,
      "Head": 6447,
      "Carl": 6448,
      "1989": 6449,
      "1984": 6450,
      "1972": 6451,
      "aired": 6452,
      "returning": 6453,
      "supporting": 6454,
      "campus": 6455,
      "Before": 6456,
      "visual": 6457,
      "element": 6458,
      "opposed": 6459,
      "council": 6460,
      "problem": 6461,
      "Croatia": 6462,
      "environment": 6463,
      "Further": 6464,
      "4th": 6465,
      "54": 6466,
      "Each": 6467,
      "Kir": 6468,
      "Mike": 6469,
      "Ry": 6470,
      "Sub": 6471,
      "fox": 6472,
      "tim": 6473,
      "##mun": 6474,
      "##nest": 6475,
      "##inem": 6476,
      "##ishes": 6477,
      "##amic": 6478,
      "atmosp": 6479,
      "fired": 6480,
      "unknown": 6481,
      "teacher": 6482,
      "address": 6483,
      "1985": 6484,
      "operated": 6485,
      "looking": 6486,
      "devot": 6487,
      "increasingly": 6488,
      "literature": 6489,
      "Operation": 6490,
      "scholars": 6491,
      "analysis": 6492,
      "straight": 6493,
      "HMS": 6494,
      "Les": 6495,
      "Meg": 6496,
      "Ret": 6497,
      "Wat": 6498,
      "boy": 6499,
      "here": 6500,
      "molec": 6501,
      "rom": 6502,
      "trou": 6503,
      "##ca": 6504,
      "##can": 6505,
      "##uge": 6506,
      "theory": 6507,
      "##ero": 6508,
      "##stream": 6509,
      "##agement": 6510,
      "##ighth": 6511,
      "perfect": 6512,
      "compr": 6513,
      "writes": 6514,
      "acad": 6515,
      "defin": 6516,
      "1960": 6517,
      "ideas": 6518,
      "believe": 6519,
      "breeding": 6520,
      "explained": 6521,
      "Barrow": 6522,
      "commonly": 6523,
      "historian": 6524,
      "settlement": 6525,
      "Morr": 6526,
      "Swed": 6527,
      "burns": 6528,
      "Cardiff": 6529,
      "confirmed": 6530,
      "Even": 6531,
      "Fri": 6532,
      "Key": 6533,
      "Public": 6534,
      "Vill": 6535,
      "ge": 6536,
      "od": 6537,
      "oil": 6538,
      "##Le": 6539,
      "##ala": 6540,
      "##alty": 6541,
      "##icient": 6542,
      "stations": 6543,
      "Stan": 6544,
      "Only": 6545,
      "consisted": 6546,
      "##resp": 6547,
      "singing": 6548,
      "poly": 6549,
      "parliament": 6550,
      "1944": 6551,
      "landfall": 6552,
      "130": 6553,
      "Class": 6554,
      "Conn": 6555,
      "advanced": 6556,
      "systems": 6557,
      "request": 6558,
      "##appy": 6559,
      "criticism": 6560,
      "females": 6561,
      "Michigan": 6562,
      "Keats": 6563,
      "Philadelphia": 6564,
      "property": 6565,
      "Congress": 6566,
      "Develop": 6567,
      "economic": 6568,
      "controlled": 6569,
      "herself": 6570,
      "Big": 6571,
      "Gard": 6572,
      "Gord": 6573,
      "Hart": 6574,
      "Rog": 6575,
      "happen": 6576,
      "pict": 6577,
      "##more": 6578,
      "##ao": 6579,
      "##een": 6580,
      "##hu": 6581,
      "##alions": 6582,
      "##add": 6583,
      "##ider": 6584,
      "deities": 6585,
      "##illo": 6586,
      "imag": 6587,
      "##weet": 6588,
      "##awa": 6589,
      "flow": 6590,
      "1990s": 6591,
      "##hips": 6592,
      "elim": 6593,
      "maintained": 6594,
      "leader": 6595,
      "creation": 6596,
      "lands": 6597,
      "exped": 6598,
      "Williams": 6599,
      "Mounted": 6600,
      "growth": 6601,
      "pieces": 6602,
      "dropped": 6603,
      "failure": 6604,
      "Addition": 6605,
      "Meanwhile": 6606,
      "57": 6607,
      "Coll": 6608,
      "Dani": 6609,
      "Dutch": 6610,
      "Ll": 6611,
      "Lu": 6612,
      "awards": 6613,
      "fict": 6614,
      "mob": 6615,
      "##right": 6616,
      "##inity": 6617,
      "##eck": 6618,
      "resemb": 6619,
      "Album": 6620,
      "compar": 6621,
      "filmed": 6622,
      "##fully": 6623,
      "killing": 6624,
      "speak": 6625,
      "freeway": 6626,
      "religion": 6627,
      "pitched": 6628,
      "strike": 6629,
      "honor": 6630,
      "injury": 6631,
      "flying": 6632,
      "semi": 6633,
      "federal": 6634,
      "600": 6635,
      "Ari": 6636,
      "Bost": 6637,
      "Der": 6638,
      "Dun": 6639,
      "Gh": 6640,
      "Matt": 6641,
      "bit": 6642,
      "mist": 6643,
      "sen": 6644,
      "tact": 6645,
      "tail": 6646,
      "task": 6647,
      "wr": 6648,
      "##cing": 6649,
      "##fort": 6650,
      "##onom": 6651,
      "##ager": 6652,
      "##antly": 6653,
      "try": 6654,
      "##ieval": 6655,
      "##ansion": 6656,
      "Italy": 6657,
      "serve": 6658,
      "##ampion": 6659,
      "retired": 6660,
      "actress": 6661,
      "km2": 6662,
      "##ashion": 6663,
      "Guard": 6664,
      "restaur": 6665,
      "Andy": 6666,
      "belief": 6667,
      "humans": 6668,
      "Abu": 6669,
      "boats": 6670,
      "value": 6671,
      "promoted": 6672,
      "mounted": 6673,
      "Minister": 6674,
      "Steve": 6675,
      "Jeff": 6676,
      "rapidly": 6677,
      "battery": 6678,
      "weapons": 6679,
      "horses": 6680,
      "Ast": 6681,
      "Cold": 6682,
      "Mod": 6683,
      "bid": 6684,
      "bank": 6685,
      "clean": 6686,
      "data": 6687,
      "rob": 6688,
      "selling": 6689,
      "ut": 6690,
      "##itable": 6691,
      "##ersey": 6692,
      "##uli": 6693,
      "chair": 6694,
      "##ieut": 6695,
      "agricult": 6696,
      "flank": 6697,
      "Americans": 6698,
      "description": 6699,
      "invasion": 6700,
      "column": 6701,
      "passes": 6702,
      "passing": 6703,
      "Conference": 6704,
      "guest": 6705,
      "publication": 6706,
      "cougar": 6707,
      "significantly": 6708,
      "promotion": 6709,
      "connected": 6710,
      "strik": 6711,
      "recognized": 6712,
      "creating": 6713,
      "multiple": 6714,
      "prepared": 6715,
      "premi": 6716,
      "accompan": 6717,
      "96": 6718,
      "Ap": 6719,
      "Bur": 6720,
      "Den": 6721,
      "Mem": 6722,
      "Video": 6723,
      "Work": 6724,
      "big": 6725,
      "bats": 6726,
      "ham": 6727,
      "sought": 6728,
      "##haps": 6729,
      "##ese": 6730,
      "##arian": 6731,
      "##render": 6732,
      "##rete": 6733,
      "##unic": 6734,
      "Inst": 6735,
      "chose": 6736,
      "##ips": 6737,
      "##amese": 6738,
      "strengthen": 6739,
      "colour": 6740,
      "producers": 6741,
      "matter": 6742,
      "famous": 6743,
      "starts": 6744,
      "popularity": 6745,
      "##arrison": 6746,
      "##chers": 6747,
      "volume": 6748,
      "walls": 6749,
      "regarded": 6750,
      "reaction": 6751,
      "silver": 6752,
      "nucleus": 6753,
      "aspects": 6754,
      "seventh": 6755,
      "necessary": 6756,
      "scheduled": 6757,
      "Gulf": 6758,
      "Line": 6759,
      "Liber": 6760,
      "gather": 6761,
      "laid": 6762,
      "mo": 6763,
      "rise": 6764,
      "rival": 6765,
      "virt": 6766,
      "##sw": 6767,
      "##load": 6768,
      "##aria": 6769,
      "##isy": 6770,
      "##olved": 6771,
      "beaut": 6772,
      "reform": 6773,
      "conce": 6774,
      "##alls": 6775,
      "send": 6776,
      "##ogen": 6777,
      "##angers": 6778,
      "1981": 6779,
      "landing": 6780,
      "##heless": 6781,
      "Vietnamese": 6782,
      "##guan": 6783,
      "sustained": 6784,
      "philos": 6785,
      "Athlet": 6786,
      "Do": 6787,
      "Hy": 6788,
      "Haven": 6789,
      "Naz": 6790,
      "Nathan": 6791,
      "Sund": 6792,
      "dated": 6793,
      "fought": 6794,
      "outer": 6795,
      "##ns": 6796,
      "##ya": 6797,
      "##kin": 6798,
      "##ini": 6799,
      "##standing": 6800,
      "##eton": 6801,
      "##ifying": 6802,
      "spring": 6803,
      "##ocked": 6804,
      "Adv": 6805,
      "USA": 6806,
      "drive": 6807,
      "Pho": 6808,
      "Among": 6809,
      "castle": 6810,
      "currently": 6811,
      "employed": 6812,
      "Cardinal": 6813,
      "Cambod": 6814,
      "##āda": 6815,
      "families": 6816,
      "Thunderbirds": 6817,
      "budget": 6818,
      "700": 6819,
      "Domin": 6820,
      "Girl": 6821,
      "Ho": 6822,
      "Obs": 6823,
      "Ur": 6824,
      "pul": 6825,
      "rating": 6826,
      "save": 6827,
      "tree": 6828,
      "##rang": 6829,
      "##hm": 6830,
      "##lines": 6831,
      "##heastern": 6832,
      "##onent": 6833,
      "##ivity": 6834,
      "##iments": 6835,
      "exec": 6836,
      "train": 6837,
      "contained": 6838,
      "arms": 6839,
      "underground": 6840,
      "##ologists": 6841,
      "##orney": 6842,
      "ends": 6843,
      "supply": 6844,
      "##insula": 6845,
      "179": 6846,
      "parall": 6847,
      "1939": 6848,
      "trial": 6849,
      "phase": 6850,
      "facilities": 6851,
      "Slam": 6852,
      "frequently": 6853,
      "Entertainment": 6854,
      "Oxford": 6855,
      "73": 6856,
      "Ca": 6857,
      "Ell": 6858,
      "Fre": 6859,
      "Fox": 6860,
      "Festival": 6861,
      "Mu": 6862,
      "More": 6863,
      "NH": 6864,
      "dial": 6865,
      "drop": 6866,
      "fat": 6867,
      "wed": 6868,
      "##iable": 6869,
      "##TC": 6870,
      "##ayer": 6871,
      "bey": 6872,
      "##thur": 6873,
      "##ava": 6874,
      "##unction": 6875,
      "executive": 6876,
      "##sea": 6877,
      "##iance": 6878,
      "contributed": 6879,
      "arc": 6880,
      "unus": 6881,
      "computer": 6882,
      "impress": 6883,
      "prefer": 6884,
      "news": 6885,
      "actors": 6886,
      "17th": 6887,
      "1942": 6888,
      "simple": 6889,
      "Prov": 6890,
      "collected": 6891,
      "allows": 6892,
      "Revolution": 6893,
      "negative": 6894,
      "##borough": 6895,
      "Studios": 6896,
      "degree": 6897,
      "bottom": 6898,
      "Gordon": 6899,
      "61": 6900,
      "62": 6901,
      "95": 6902,
      "Bri": 6903,
      "Chel": 6904,
      "NBA": 6905,
      "Rail": 6906,
      "Sus": 6907,
      "cited": 6908,
      "dim": 6909,
      "hor": 6910,
      "##rin": 6911,
      "##rum": 6912,
      "##hi": 6913,
      "##lusion": 6914,
      "##kins": 6915,
      "##asts": 6916,
      "##unte": 6917,
      "##sey": 6918,
      "shaped": 6919,
      "sports": 6920,
      "prin": 6921,
      "##ansas": 6922,
      "overl": 6923,
      "##anny": 6924,
      "##ancing": 6925,
      "opera": 6926,
      "effective": 6927,
      "1950s": 6928,
      "1918": 6929,
      "entirely": 6930,
      "animals": 6931,
      "improved": 6932,
      "Coast": 6933,
      "subsequent": 6934,
      "Between": 6935,
      "Turner": 6936,
      "Crazy": 6937,
      "Premier": 6938,
      "fictional": 6939,
      "##ieutenant": 6940,
      "beyond": 6941,
      "800": 6942,
      "97": 6943,
      "Dar": 6944,
      "draft": 6945,
      "egg": 6946,
      "gain": 6947,
      "gives": 6948,
      "mig": 6949,
      "##mission": 6950,
      "##rations": 6951,
      "##icial": 6952,
      "##opium": 6953,
      "##essed": 6954,
      "notable": 6955,
      "recently": 6956,
      "##perial": 6957,
      "adapt": 6958,
      "Alf": 6959,
      "Mario": 6960,
      "1969": 6961,
      "1968": 6962,
      "extensive": 6963,
      "Muslim": 6964,
      "medical": 6965,
      "myth": 6966,
      "finding": 6967,
      "boat": 6968,
      "Boise": 6969,
      "gradually": 6970,
      "Martin": 6971,
      "kilometres": 6972,
      "Today": 6973,
      "Lewis": 6974,
      "Boston": 6975,
      "Bart": 6976,
      "Cub": 6977,
      "Greg": 6978,
      "Jain": 6979,
      "Kang": 6980,
      "Rod": 6981,
      "UN": 6982,
      "bass": 6983,
      "dates": 6984,
      "ritual": 6985,
      "##eed": 6986,
      "##ridge": 6987,
      "##iences": 6988,
      "##eda": 6989,
      "##atus": 6990,
      "##ingly": 6991,
      "##eless": 6992,
      "##amy": 6993,
      "##lywood": 6994,
      "stages": 6995,
      "##ules": 6996,
      "##opes": 6997,
      "Stone": 6998,
      "unp": 6999,
      "floor": 7000,
      "secondary": 7001,
      "Bridge": 7002,
      "12th": 7003,
      "severe": 7004,
      "coal": 7005,
      "1975": 7006,
      "expanded": 7007,
      "finals": 7008,
      "occas": 7009,
      "Juan": 7010,
      "serving": 7011,
      "antimony": 7012,
      "Barb": 7013,
      "survey": 7014,
      "programs": 7015,
      "glob": 7016,
      "Crown": 7017,
      "System": 7018,
      "People": 7019,
      "Russian": 7020,
      "##ánh": 7021,
      "torpedo": 7022,
      "72": 7023,
      "85": 7024,
      "Aer": 7025,
      "Aven": 7026,
      "Bru": 7027,
      "Men": 7028,
      "Ni": 7029,
      "bow": 7030,
      "green": 7031,
      "##ez": 7032,
      "##iations": 7033,
      "##cle": 7034,
      "##chen": 7035,
      "##yson": 7036,
      "##outs": 7037,
      "##ela": 7038,
      "##ads": 7039,
      "comes": 7040,
      "items": 7041,
      "##usted": 7042,
      "composition": 7043,
      "centuries": 7044,
      "mush": 7045,
      "1965": 7046,
      "1974": 7047,
      "##ographic": 7048,
      "finds": 7049,
      "Evita": 7050,
      "Magazine": 7051,
      "occupied": 7052,
      "Upon": 7053,
      "policy": 7054,
      "exclus": 7055,
      "81": 7056,
      "94": 7057,
      "Bi": 7058,
      "Band": 7059,
      "Gab": 7060,
      "Jac": 7061,
      "Jud": 7062,
      "daily": 7063,
      "faith": 7064,
      "naval": 7065,
      "opt": 7066,
      "##uate": 7067,
      "##erts": 7068,
      "##inate": 7069,
      "##itan": 7070,
      "##asure": 7071,
      "##urches": 7072,
      "##apes": 7073,
      "##rupt": 7074,
      "##izations": 7075,
      "##ublin": 7076,
      "decades": 7077,
      "Marl": 7078,
      "Isab": 7079,
      "Commander": 7080,
      "deaths": 7081,
      "successfully": 7082,
      "losses": 7083,
      "Khánh": 7084,
      "MacLe": 7085,
      "negot": 7086,
      "treatment": 7087,
      "independence": 7088,
      "calc": 7089,
      "slowly": 7090,
      "commissioned": 7091,
      "experienced": 7092,
      "challeng": 7093,
      "##unicipal": 7094,
      "71": 7095,
      "CD": 7096,
      "Luc": 7097,
      "Rome": 7098,
      "cool": 7099,
      "eas": 7100,
      "eth": 7101,
      "fle": 7102,
      "##roll": 7103,
      "##ii": 7104,
      "##win": 7105,
      "##anda": 7106,
      "##istan": 7107,
      "Ing": 7108,
      "##anga": 7109,
      "flag": 7110,
      "synt": 7111,
      "164": 7112,
      "didn": 7113,
      "trip": 7114,
      "personnel": 7115,
      "sentence": 7116,
      "engaged": 7117,
      "captain": 7118,
      "Songs": 7119,
      "Jamal": 7120,
      "purchased": 7121,
      "Liu": 7122,
      "Avenue": 7123,
      "Brian": 7124,
      "Dublin": 7125,
      "GA": 7126,
      "Hon": 7127,
      "Han": 7128,
      "Mot": 7129,
      "Pers": 7130,
      "Ron": 7131,
      "Spr": 7132,
      "aer": 7133,
      "labor": 7134,
      "##aire": 7135,
      "##rot": 7136,
      "##lyss": 7137,
      "street": 7138,
      "beach": 7139,
      "fresh": 7140,
      "chorus": 7141,
      "nothing": 7142,
      "Chart": 7143,
      "accompl": 7144,
      "Sha": 7145,
      "Science": 7146,
      "160": 7147,
      "concrete": 7148,
      "1946": 7149,
      "southwest": 7150,
      "protagon": 7151,
      "worldwide": 7152,
      "begun": 7153,
      "importance": 7154,
      "propos": 7155,
      "declined": 7156,
      "reasons": 7157,
      "##ategory": 7158,
      "briefly": 7159,
      "Tennyson": 7160,
      "normal": 7161,
      "Throughout": 7162,
      "District": 7163,
      "Baby": 7164,
      "Iguan": 7165,
      "Mov": 7166,
      "Tra": 7167,
      "drawn": 7168,
      "gas": 7169,
      "lin": 7170,
      "nor": 7171,
      "##eals": 7172,
      "##war": 7173,
      "theat": 7174,
      "##erc": 7175,
      "##aton": 7176,
      "##iration": 7177,
      "##utation": 7178,
      "incident": 7179,
      "##okes": 7180,
      "Also": 7181,
      "moves": 7182,
      "Leon": 7183,
      "leaders": 7184,
      "1950": 7185,
      "Project": 7186,
      "roads": 7187,
      "Simone": 7188,
      "escape": 7189,
      "Governor": 7190,
      "platform": 7191,
      "Bern": 7192,
      "Gi": 7193,
      "Jes": 7194,
      "Row": 7195,
      "Ray": 7196,
      "Tru": 7197,
      "dance": 7198,
      "hired": 7199,
      "pet": 7200,
      "rar": 7201,
      "rac": 7202,
      "tall": 7203,
      "tend": 7204,
      "witness": 7205,
      "##of": 7206,
      "##set": 7207,
      "##la": 7208,
      "##uan": 7209,
      "##ality": 7210,
      "##amin": 7211,
      "isol": 7212,
      "plum": 7213,
      "spons": 7214,
      "firm": 7215,
      "##quake": 7216,
      "unf": 7217,
      "Albert": 7218,
      "flu": 7219,
      "decade": 7220,
      "##ooking": 7221,
      "Maria": 7222,
      "foundation": 7223,
      "longest": 7224,
      "1966": 7225,
      "1952": 7226,
      "1936": 7227,
      "guard": 7228,
      "1919": 7229,
      "arrival": 7230,
      "possibility": 7231,
      "chapter": 7232,
      "billion": 7233,
      "participated": 7234,
      "unsu": 7235,
      "Temple": 7236,
      "Area": 7237,
      "enjoyed": 7238,
      "responded": 7239,
      "Family": 7240,
      "Production": 7241,
      "paintings": 7242,
      "##respond": 7243,
      "Development": 7244,
      "senior": 7245,
      "accompanied": 7246,
      "MacLeod": 7247,
      "Board": 7248,
      "Dream": 7249,
      "Five": 7250,
      "Rox": 7251,
      "Sk": 7252,
      "Ulyss": 7253,
      "jack": 7254,
      "ring": 7255,
      "vert": 7256,
      "wides": 7257,
      "##rons": 7258,
      "##ía": 7259,
      "##BS": 7260,
      "##isers": 7261,
      "stret": 7262,
      "##osa": 7263,
      "##estone": 7264,
      "##rie": 7265,
      "heard": 7266,
      "##ichol": 7267,
      "Chains": 7268,
      "resear": 7269,
      "adap": 7270,
      "Ali": 7271,
      "##ifications": 7272,
      "setting": 7273,
      "110": 7274,
      "177": 7275,
      "developing": 7276,
      "passeng": 7277,
      "oldest": 7278,
      "Phill": 7279,
      "squad": 7280,
      "agreement": 7281,
      "dollar": 7282,
      "##hetic": 7283,
      "roughly": 7284,
      "Admir": 7285,
      "Summer": 7286,
      "Ulysses": 7287,
      "77": 7288,
      "Bor": 7289,
      "Bond": 7290,
      "Tim": 7291,
      "Wall": 7292,
      "dog": 7293,
      "##pread": 7294,
      "##chest": 7295,
      "##ycl": 7296,
      "##OC": 7297,
      "##imet": 7298,
      "choice": 7299,
      "##pty": 7300,
      "remn": 7301,
      "consists": 7302,
      "decre": 7303,
      "accident": 7304,
      "calls": 7305,
      "transit": 7306,
      "adding": 7307,
      "populations": 7308,
      "1973": 7309,
      "Const": 7310,
      "1930": 7311,
      "protest": 7312,
      "lasted": 7313,
      "Brook": 7314,
      "combination": 7315,
      "technology": 7316,
      "existence": 7317,
      "violence": 7318,
      "regarding": 7319,
      "dominated": 7320,
      "poetry": 7321,
      "athletes": 7322,
      "Francisc": 7323,
      "symbol": 7324,
      "Dougl": 7325,
      "Turkish": 7326,
      "Anthony": 7327,
      "Instead": 7328,
      "59": 7329,
      "Bishop": 7330,
      "Never": 7331,
      "fellow": 7332,
      "pal": 7333,
      "sle": 7334,
      "##aver": 7335,
      "##come": 7336,
      "##je": 7337,
      "##ato": 7338,
      "##orter": 7339,
      "##itors": 7340,
      "##ici": 7341,
      "Theatre": 7342,
      "##iday": 7343,
      "##ote": 7344,
      "##usal": 7345,
      "comic": 7346,
      "##iston": 7347,
      "seat": 7348,
      "note": 7349,
      "contrib": 7350,
      "reserv": 7351,
      "impr": 7352,
      "committee": 7353,
      "Marc": 7354,
      "undert": 7355,
      "filming": 7356,
      "assass": 7357,
      "submar": 7358,
      "acres": 7359,
      "##phy": 7360,
      "Anonymous": 7361,
      "door": 7362,
      "Carib": 7363,
      "performing": 7364,
      "1967": 7365,
      "##ructure": 7366,
      "college": 7367,
      "clubs": 7368,
      "##urring": 7369,
      "towns": 7370,
      "competitions": 7371,
      "Georg": 7372,
      "association": 7373,
      "closely": 7374,
      "Braz": 7375,
      "Ode": 7376,
      "existing": 7377,
      "applied": 7378,
      "pilot": 7379,
      "habitat": 7380,
      "Radio": 7381,
      "weakened": 7382,
      "Hornung": 7383,
      "unsuccess": 7384,
      "66": 7385,
      "98": 7386,
      "Aston": 7387,
      "AML": 7388,
      "Kenn": 7389,
      "Sap": 7390,
      "fashion": 7391,
      "ps": 7392,
      "ton": 7393,
      "tells": 7394,
      "##com": 7395,
      "##ym": 7396,
      "##laim": 7397,
      "##born": 7398,
      "##burg": 7399,
      "##ading": 7400,
      "##usc": 7401,
      "##agre": 7402,
      "truth": 7403,
      "reconst": 7404,
      "perhaps": 7405,
      "descend": 7406,
      "substant": 7407,
      "capable": 7408,
      "175": 7409,
      "distingu": 7410,
      "provides": 7411,
      "neither": 7412,
      "1930s": 7413,
      "1914": 7414,
      "battalions": 7415,
      "details": 7416,
      "serves": 7417,
      "greatly": 7418,
      "##riptions": 7419,
      "correspond": 7420,
      "Mountain": 7421,
      "learned": 7422,
      "painting": 7423,
      "archaeological": 7424,
      "derived": 7425,
      "purpose": 7426,
      "administration": 7427,
      "opportunity": 7428,
      "ceremony": 7429,
      "occasionally": 7430,
      "Caribbe": 7431,
      "6th": 7432,
      "Dota": 7433,
      "Life": 7434,
      "Mel": 7435,
      "Oh": 7436,
      "bought": 7437,
      "hyp": 7438,
      "rif": 7439,
      "root": 7440,
      "roof": 7441,
      "som": 7442,
      "sort": 7443,
      "sail": 7444,
      "##bo": 7445,
      "##OT": 7446,
      "##isf": 7447,
      "##entially": 7448,
      "thing": 7449,
      "##amm": 7450,
      "##uri": 7451,
      "##ola": 7452,
      "ones": 7453,
      "##agn": 7454,
      "##agle": 7455,
      "churches": 7456,
      "Stew": 7457,
      "##elli": 7458,
      "##rait": 7459,
      "##rug": 7460,
      "##ountain": 7461,
      "shel": 7462,
      "basket": 7463,
      "grav": 7464,
      "supposed": 7465,
      "invited": 7466,
      "emp": 7467,
      "receiving": 7468,
      "headed": 7469,
      "editor": 7470,
      "protection": 7471,
      "storyline": 7472,
      "Broad": 7473,
      "skin": 7474,
      "speaking": 7475,
      "correct": 7476,
      "household": 7477,
      "technique": 7478,
      "neck": 7479,
      "innings": 7480,
      "Archae": 7481,
      "filled": 7482,
      "vehicles": 7483,
      "dissipated": 7484,
      "Chelsea": 7485,
      "Douglas": 7486,
      "Caribbean": 7487,
      "Det": 7488,
      "ERA": 7489,
      "IG": 7490,
      "Jay": 7491,
      "Low": 7492,
      "Lieutenant": 7493,
      "Real": 7494,
      "Vol": 7495,
      "aim": 7496,
      "cit": 7497,
      "drew": 7498,
      "hat": 7499,
      "ign": 7500,
      "##aud": 7501,
      "##pass": 7502,
      "##lik": 7503,
      "##var": 7504,
      "##RE": 7505,
      "##VN": 7506,
      "Inc": 7507,
      "##abil": 7508,
      "seg": 7509,
      "evac": 7510,
      "Freder": 7511,
      "subt": 7512,
      "acid": 7513,
      "Asia": 7514,
      "##ropri": 7515,
      "goes": 7516,
      "branch": 7517,
      "1945": 7518,
      "1971": 7519,
      "What": 7520,
      "receive": 7521,
      "anything": 7522,
      "depict": 7523,
      "classified": 7524,
      "typical": 7525,
      "viewed": 7526,
      "About": 7527,
      "Perry": 7528,
      "Georgian": 7529,
      "survived": 7530,
      "islands": 7531,
      "##iece": 7532,
      "##idden": 7533,
      "massive": 7534,
      "motion": 7535,
      "stopped": 7536,
      "Maeda": 7537,
      "drama": 7538,
      "southeast": 7539,
      "astron": 7540,
      "Constantine": 7541,
      "Hibari": 7542,
      "Friends": 7543,
      "Daniel": 7544,
      "widespread": 7545,
      "3D": 7546,
      "Age": 7547,
      "Down": 7548,
      "Hard": 7549,
      "Kil": 7550,
      "MTV": 7551,
      "Qedar": 7552,
      "Ré": 7553,
      "Run": 7554,
      "Rio": 7555,
      "Top": 7556,
      "Wind": 7557,
      "fuel": 7558,
      "gal": 7559,
      "load": 7560,
      "rot": 7561,
      "##oe": 7562,
      "##tty": 7563,
      "##ni": 7564,
      "##ras": 7565,
      "##ruli": 7566,
      "##ona": 7567,
      "##ario": 7568,
      "##ilton": 7569,
      "##acity": 7570,
      "why": 7571,
      "##aked": 7572,
      "##ighter": 7573,
      "cho": 7574,
      "shared": 7575,
      "trying": 7576,
      "##pton": 7577,
      "##iege": 7578,
      "adult": 7579,
      "##iously": 7580,
      "flights": 7581,
      "##anned": 7582,
      "soft": 7583,
      "1982": 7584,
      "176": 7585,
      "district": 7586,
      "Princ": 7587,
      "authors": 7588,
      "initi": 7589,
      "Romani": 7590,
      "Simon": 7591,
      "settlers": 7592,
      "missing": 7593,
      "focused": 7594,
      "##glades": 7595,
      "Golden": 7596,
      "acquired": 7597,
      "safety": 7598,
      "digital": 7599,
      "##ibrary": 7600,
      "Fantasy": 7601,
      "repeated": 7602,
      "converted": 7603,
      "Gram": 7604,
      "Jones": 7605,
      "Patt": 7606,
      "Sound": 7607,
      "cab": 7608,
      "dub": 7609,
      "ice": 7610,
      "rich": 7611,
      "##cription": 7612,
      "##inosaur": 7613,
      "##stances": 7614,
      "##rog": 7615,
      "##lying": 7616,
      "##idges": 7617,
      "##iful": 7618,
      "channel": 7619,
      "exact": 7620,
      "Stadium": 7621,
      "spacing": 7622,
      "legend": 7623,
      "##ube": 7624,
      "##ucing": 7625,
      "##ilding": 7626,
      "##issance": 7627,
      "##eget": 7628,
      "baseball": 7629,
      "locations": 7630,
      "1980": 7631,
      "1976": 7632,
      "finish": 7633,
      "depicted": 7634,
      "1956": 7635,
      "1916": 7636,
      "1913": 7637,
      "250": 7638,
      "glass": 7639,
      "##reme": 7640,
      "watched": 7641,
      "holding": 7642,
      "rebu": 7643,
      "funding": 7644,
      "Holy": 7645,
      "Moz": 7646,
      "planning": 7647,
      "Surv": 7648,
      "arranged": 7649,
      "Oslo": 7650,
      "routes": 7651,
      "instrument": 7652,
      "Haiti": 7653,
      "succeeded": 7654,
      "permanent": 7655,
      "Venus": 7656,
      "opinion": 7657,
      "Shortly": 7658,
      "atmosphere": 7659,
      "Phoen": 7660,
      "wedding": 7661,
      "Iguanodon": 7662,
      "Brazil": 7663,
      "69": 7664,
      "87": 7665,
      "8th": 7666,
      "Kat": 7667,
      "Lenn": 7668,
      "Mah": 7669,
      "Roy": 7670,
      "bowl": 7671,
      "crop": 7672,
      "mut": 7673,
      "micro": 7674,
      "rose": 7675,
      "wick": 7676,
      "##rab": 7677,
      "##anth": 7678,
      "##igation": 7679,
      "##essing": 7680,
      "##rier": 7681,
      "##apers": 7682,
      "chance": 7683,
      "intention": 7684,
      "resident": 7685,
      "##mann": 7686,
      "Arts": 7687,
      "knew": 7688,
      "decline": 7689,
      "##oba": 7690,
      "assemb": 7691,
      "defined": 7692,
      "revers": 7693,
      "revolution": 7694,
      "10th": 7695,
      "112": 7696,
      "1943": 7697,
      "providing": 7698,
      "Allied": 7699,
      "protect": 7700,
      "reality": 7701,
      "##ipping": 7702,
      "Similar": 7703,
      "creator": 7704,
      "penalty": 7705,
      "urban": 7706,
      "earthquake": 7707,
      "credited": 7708,
      "Secretary": 7709,
      "Gil": 7710,
      "Gully": 7711,
      "Hell": 7712,
      "Homer": 7713,
      "Kel": 7714,
      "Rangers": 7715,
      "Snow": 7716,
      "Wy": 7717,
      "Ye": 7718,
      "dating": 7719,
      "eur": 7720,
      "rub": 7721,
      "sun": 7722,
      "tied": 7723,
      "wins": 7724,
      "##LI": 7725,
      "##aser": 7726,
      "##rec": 7727,
      "##uration": 7728,
      "##iminal": 7729,
      "cong": 7730,
      "##andy": 7731,
      "Chronic": 7732,
      "pregn": 7733,
      "##evo": 7734,
      "##formation": 7735,
      "1963": 7736,
      "airport": 7737,
      "download": 7738,
      "moder": 7739,
      "heads": 7740,
      "ways": 7741,
      "explos": 7742,
      "Abb": 7743,
      "laws": 7744,
      "technical": 7745,
      "separated": 7746,
      "renamed": 7747,
      "Everglades": 7748,
      "Stevens": 7749,
      "Hindu": 7750,
      "thousands": 7751,
      "delivered": 7752,
      "supplies": 7753,
      "Morrison": 7754,
      "Additionally": 7755,
      "IGN": 7756,
      "Ly": 7757,
      "Mul": 7758,
      "UTC": 7759,
      "bul": 7760,
      "dry": 7761,
      "fair": 7762,
      "powers": 7763,
      "rural": 7764,
      "san": 7765,
      "##ture": 7766,
      "##ront": 7767,
      "##hl": 7768,
      "##gé": 7769,
      "##bur": 7770,
      "##SB": 7771,
      "##oral": 7772,
      "##ador": 7773,
      "recru": 7774,
      "enl": 7775,
      "##issipp": 7776,
      "Arthur": 7777,
      "secure": 7778,
      "##attle": 7779,
      "teaching": 7780,
      "regime": 7781,
      "emperor": 7782,
      "Committee": 7783,
      "Australians": 7784,
      "turning": 7785,
      "commanded": 7786,
      "opposition": 7787,
      "##ivalent": 7788,
      "courts": 7789,
      "surviv": 7790,
      "Mississipp": 7791,
      "certified": 7792,
      "Hollywood": 7793,
      "Walter": 7794,
      "eyes": 7795,
      "assistance": 7796,
      "Office": 7797,
      "remainder": 7798,
      "journey": 7799,
      "indicate": 7800,
      "consisting": 7801,
      "Bradford": 7802,
      "Alexander": 7803,
      "Columbia": 7804,
      "Sunday": 7805,
      "Truj": 7806,
      "Cop": 7807,
      "Far": 7808,
      "Fire": 7809,
      "Native": 7810,
      "Ro": 7811,
      "Seas": 7812,
      "Sev": 7813,
      "baby": 7814,
      "card": 7815,
      "eld": 7816,
      "harm": 7817,
      "ll": 7818,
      "lit": 7819,
      "lov": 7820,
      "pup": 7821,
      "##cer": 7822,
      "##hat": 7823,
      "##erted": 7824,
      "##opher": 7825,
      "sud": 7826,
      "Int": 7827,
      "##illing": 7828,
      "##ardo": 7829,
      "attached": 7830,
      "##ribed": 7831,
      "Marine": 7832,
      "highlight": 7833,
      "noisy": 7834,
      "surrender": 7835,
      "16th": 7836,
      "quite": 7837,
      "11th": 7838,
      "1978": 7839,
      "disturb": 7840,
      "occurs": 7841,
      "1953": 7842,
      "camps": 7843,
      "turns": 7844,
      "references": 7845,
      "valley": 7846,
      "Montana": 7847,
      "Maryland": 7848,
      "economy": 7849,
      "establishment": 7850,
      "Croatian": 7851,
      "Democr": 7852,
      "Critical": 7853,
      "Director": 7854,
      "Trujillo": 7855,
      "Dom": 7856,
      "Fish": 7857,
      "ML": 7858,
      "Mid": 7859,
      "Master": 7860,
      "Pu": 7861,
      "Sav": 7862,
      "fan": 7863,
      "vic": 7864,
      "##mit": 7865,
      "##rating": 7866,
      "##asing": 7867,
      "##eline": 7868,
      "##entions": 7869,
      "##othes": 7870,
      "##agues": 7871,
      "##uma": 7872,
      "##ripts": 7873,
      "##ewhere": 7874,
      "##aka": 7875,
      "Stef": 7876,
      "leaves": 7877,
      "resist": 7878,
      "Alan": 7879,
      "interior": 7880,
      "monarch": 7881,
      "studied": 7882,
      "leads": 7883,
      "distribution": 7884,
      "finishing": 7885,
      "producing": 7886,
      "successor": 7887,
      "##ception": 7888,
      "convention": 7889,
      "replace": 7890,
      "views": 7891,
      "reputation": 7892,
      "circum": 7893,
      "missions": 7894,
      "denied": 7895,
      "immig": 7896,
      "Samuel": 7897,
      "shooting": 7898,
      "methods": 7899,
      "portrayed": 7900,
      "puzz": 7901,
      "Charlie": 7902,
      "Engineer": 7903,
      "hydro": 7904,
      "Roxas": 7905,
      "adapted": 7906,
      "Mississippi": 7907,
      "7th": 7908,
      "91": 7909,
      "Di": 7910,
      "Hug": 7911,
      "NBC": 7912,
      "Press": 7913,
      "kits": 7914,
      "lic": 7915,
      "lane": 7916,
      "worth": 7917,
      "##aising": 7918,
      "##dal": 7919,
      "##ić": 7920,
      "##ients": 7921,
      "##inster": 7922,
      "##orer": 7923,
      "##real": 7924,
      "##rell": 7925,
      "##lements": 7926,
      "store": 7927,
      "franch": 7928,
      "##unket": 7929,
      "hear": 7930,
      "##onder": 7931,
      "offense": 7932,
      "prey": 7933,
      "upd": 7934,
      "gameplay": 7935,
      "maintain": 7936,
      "Plunket": 7937,
      "characteristics": 7938,
      "1915": 7939,
      "entry": 7940,
      "protected": 7941,
      "crime": 7942,
      "Recording": 7943,
      "window": 7944,
      "Within": 7945,
      "politics": 7946,
      "entering": 7947,
      "getting": 7948,
      "predec": 7949,
      "Activision": 7950,
      "motor": 7951,
      "Howard": 7952,
      "##senal": 7953,
      "worst": 7954,
      "Stephen": 7955,
      "dismissed": 7956,
      "intelligence": 7957,
      "79": 7958,
      "Bos": 7959,
      "DNA": 7960,
      "Nether": 7961,
      "Ridge": 7962,
      "Ts": 7963,
      "cry": 7964,
      "crown": 7965,
      "die": 7966,
      "drug": 7967,
      "pound": 7968,
      "ru": 7969,
      "tell": 7970,
      "von": 7971,
      "##aug": 7972,
      "##iar": 7973,
      "##30": 7974,
      "tomb": 7975,
      "##elve": 7976,
      "##amber": 7977,
      "##acent": 7978,
      "stones": 7979,
      "##thm": 7980,
      "##pping": 7981,
      "exerc": 7982,
      "noting": 7983,
      "resour": 7984,
      "##ender": 7985,
      "attributed": 7986,
      "outl": 7987,
      "knots": 7988,
      "Marsh": 7989,
      "charts": 7990,
      "charges": 7991,
      "retire": 7992,
      "interested": 7993,
      "basin": 7994,
      "monument": 7995,
      "122": 7996,
      "capacity": 7997,
      "colle": 7998,
      "classes": 7999,
      "experiment": 8000,
      "Eliz": 8001,
      "novels": 8002,
      "historic": 8003,
      "introduction": 8004,
      "Calvert": 8005,
      "electric": 8006,
      "holds": 8007,
      "tribes": 8008,
      "discussed": 8009,
      "dollars": 8010,
      "mushroom": 8011,
      "Isabella": 8012,
      "74": 8013,
      "Danny": 8014,
      "Gang": 8015,
      "Jersey": 8016,
      "Pope": 8017,
      "Sor": 8018,
      "Trib": 8019,
      "Walk": 8020,
      "cinem": 8021,
      "fer": 8022,
      "sector": 8023,
      "van": 8024,
      "vary": 8025,
      "vision": 8026,
      "##taining": 8027,
      "##wise": 8028,
      "##eness": 8029,
      "##itage": 8030,
      "##itled": 8031,
      "##uls": 8032,
      "##osis": 8033,
      "##osure": 8034,
      "pros": 8035,
      "##angerous": 8036,
      "agent": 8037,
      "offers": 8038,
      "##ockey": 8039,
      "##aws": 8040,
      "charter": 8041,
      "accounts": 8042,
      "publisher": 8043,
      "sym": 8044,
      "##ajevo": 8045,
      "appearing": 8046,
      "1948": 8047,
      "describing": 8048,
      "generation": 8049,
      "1917": 8050,
      "medieval": 8051,
      "solid": 8052,
      "fields": 8053,
      "statement": 8054,
      "younger": 8055,
      "pitch": 8056,
      "coastal": 8057,
      "ruled": 8058,
      "rules": 8059,
      "chapel": 8060,
      "colonial": 8061,
      "Team": 8062,
      "Sarajevo": 8063,
      "Weekly": 8064,
      "Lisa": 8065,
      "Industry": 8066,
      "88": 8067,
      "99": 8068,
      "Cru": 8069,
      "Daily": 8070,
      "Here": 8071,
      "Jif": 8072,
      "Net": 8073,
      "Wars": 8074,
      "bond": 8075,
      "caught": 8076,
      "ec": 8077,
      "hope": 8078,
      "kings": 8079,
      "zone": 8080,
      "##nell": 8081,
      "##fri": 8082,
      "##water": 8083,
      "##break": 8084,
      "##6th": 8085,
      "inner": 8086,
      "##rets": 8087,
      "forests": 8088,
      "##ivals": 8089,
      "##owed": 8090,
      "##ateur": 8091,
      "##ocal": 8092,
      "plants": 8093,
      "arts": 8094,
      "releg": 8095,
      "unn": 8096,
      "desire": 8097,
      "manner": 8098,
      "someone": 8099,
      "basic": 8100,
      "soil": 8101,
      "1979": 8102,
      "1951": 8103,
      "##intend": 8104,
      "Earl": 8105,
      "everything": 8106,
      "##offman": 8107,
      "discovery": 8108,
      "difficulty": 8109,
      "recognition": 8110,
      "exception": 8111,
      "apart": 8112,
      "Strand": 8113,
      "Campb": 8114,
      "principal": 8115,
      "considerable": 8116,
      "Victoria": 8117,
      "disappear": 8118,
      "emotional": 8119,
      "ninth": 8120,
      "Yankovic": 8121,
      "Destiny": 8122,
      "article": 8123,
      "restaurant": 8124,
      "synthes": 8125,
      "rarely": 8126,
      "Frederick": 8127,
      "Around": 8128,
      "Fair": 8129,
      "Hung": 8130,
      "Jun": 8131,
      "Rem": 8132,
      "Rolling": 8133,
      "Sel": 8134,
      "cold": 8135,
      "gall": 8136,
      "hill": 8137,
      "hall": 8138,
      "mine": 8139,
      "nob": 8140,
      "pool": 8141,
      "taught": 8142,
      "worship": 8143,
      "##bles": 8144,
      "##know": 8145,
      "##ānt": 8146,
      "##iling": 8147,
      "##aments": 8148,
      "##igades": 8149,
      "##aga": 8150,
      "##avia": 8151,
      "##opp": 8152,
      "##union": 8153,
      "Init": 8154,
      "##ables": 8155,
      "##abeth": 8156,
      "##acked": 8157,
      "##ipe": 8158,
      "##ultane": 8159,
      "wealth": 8160,
      "Joe": 8161,
      "121": 8162,
      "Lee": 8163,
      "1961": 8164,
      "landed": 8165,
      "1954": 8166,
      "evening": 8167,
      "Organ": 8168,
      "opponents": 8169,
      "replacement": 8170,
      "involvement": 8171,
      "##graded": 8172,
      "volunte": 8173,
      "nomination": 8174,
      "specifically": 8175,
      "wooden": 8176,
      "Television": 8177,
      "Transport": 8178,
      "hotel": 8179,
      "Somali": 8180,
      "Clarkson": 8181,
      "thirty": 8182,
      "aggress": 8183,
      "Mozamb": 8184,
      "sudden": 8185,
      "AR": 8186,
      "Cas": 8187,
      "Cam": 8188,
      "DA": 8189,
      "Fame": 8190,
      "Germ": 8191,
      "Lords": 8192,
      "Si": 8193,
      "Santa": 8194,
      "fish": 8195,
      "jazz": 8196,
      "tie": 8197,
      "veget": 8198,
      "##de": 8199,
      "##rant": 8200,
      "##yles": 8201,
      "##kh": 8202,
      "##AC": 8203,
      "##atures": 8204,
      "##orous": 8205,
      "##enz": 8206,
      "##ingale": 8207,
      "##ician": 8208,
      "##reets": 8209,
      "stream": 8210,
      "##emia": 8211,
      "##using": 8212,
      "consequ": 8213,
      "##umps": 8214,
      "##rif": 8215,
      "##istol": 8216,
      "leuk": 8217,
      "scrap": 8218,
      "secured": 8219,
      "accur": 8220,
      "##ropol": 8221,
      "##rows": 8222,
      "##raph": 8223,
      "##inking": 8224,
      "carbon": 8225,
      "1937": 8226,
      "believes": 8227,
      "Order": 8228,
      "##psons": 8229,
      "communities": 8230,
      "Simpsons": 8231,
      "divine": 8232,
      "Roberts": 8233,
      "poems": 8234,
      "Duke": 8235,
      "##aska": 8236,
      "industrial": 8237,
      "Singles": 8238,
      "Jerusal": 8239,
      "intersection": 8240,
      "picked": 8241,
      "controversy": 8242,
      "Wilde": 8243,
      "recommended": 8244,
      "Colonel": 8245,
      "split": 8246,
      "##ranean": 8247,
      "Bono": 8248,
      "Skye": 8249,
      "fungus": 8250,
      "Modern": 8251,
      "Brien": 8252,
      "Spring": 8253,
      "Francisco": 8254,
      "Jifna": 8255,
      "Jerusalem": 8256,
      "Ball": 8257,
      "Cab": 8258,
      "Cory": 8259,
      "Chen": 8260,
      "Nap": 8261,
      "Nick": 8262,
      "Rif": 8263,
      "Win": 8264,
      "dock": 8265,
      "fit": 8266,
      "faces": 8267,
      "municipal": 8268,
      "sed": 8269,
      "soul": 8270,
      "tal": 8271,
      "vide": 8272,
      "##theless": 8273,
      "##rast": 8274,
      "##eland": 8275,
      "##agu": 8276,
      "##apped": 8277,
      "subs": 8278,
      "whereas": 8279,
      "Ash": 8280,
      "Carter": 8281,
      "##ertain": 8282,
      "strateg": 8283,
      "leadership": 8284,
      "signing": 8285,
      "Plot": 8286,
      "depend": 8287,
      "Track": 8288,
      "1955": 8289,
      "Adams": 8290,
      "Prime": 8291,
      "criminal": 8292,
      "organizations": 8293,
      "##iveness": 8294,
      "legs": 8295,
      "standards": 8296,
      "joint": 8297,
      "Hamilton": 8298,
      "appoint": 8299,
      "missed": 8300,
      "drawing": 8301,
      "launch": 8302,
      "absor": 8303,
      "Olympics": 8304,
      "concerns": 8305,
      "Military": 8306,
      "scholar": 8307,
      "Human": 8308,
      "extremely": 8309,
      "specimens": 8310,
      "Independent": 8311,
      "Argentina": 8312,
      "wrong": 8313,
      "parallel": 8314,
      "89": 8315,
      "82": 8316,
      "AD": 8317,
      "Power": 8318,
      "bes": 8319,
      "ble": 8320,
      "session": 8321,
      "youth": 8322,
      "##ait": 8323,
      "##sch": 8324,
      "##lan": 8325,
      "##onica": 8326,
      "##inger": 8327,
      "##otes": 8328,
      "##imal": 8329,
      "conference": 8330,
      "1900": 8331,
      "existed": 8332,
      "parties": 8333,
      "##wealth": 8334,
      "teeth": 8335,
      "indig": 8336,
      "Anc": 8337,
      "minister": 8338,
      "showing": 8339,
      "##iversary": 8340,
      "distributed": 8341,
      "warm": 8342,
      "Forces": 8343,
      "1958": 8344,
      "collect": 8345,
      "##scape": 8346,
      "Beach": 8347,
      "tries": 8348,
      "approached": 8349,
      "demol": 8350,
      "speech": 8351,
      "connection": 8352,
      "relationships": 8353,
      "treaty": 8354,
      "threatened": 8355,
      "surrounded": 8356,
      "emerged": 8357,
      "chemical": 8358,
      "Writing": 8359,
      "diameter": 8360,
      "Banai": 8361,
      "Ryan": 8362,
      "psych": 8363,
      "europium": 8364,
      "Bank": 8365,
      "CE": 8366,
      "IV": 8367,
      "Iron": 8368,
      "Pul": 8369,
      "WW": 8370,
      "bat": 8371,
      "fal": 8372,
      "il": 8373,
      "ib": 8374,
      "mart": 8375,
      "page": 8376,
      "table": 8377,
      "wants": 8378,
      "##ois": 8379,
      "##ray": 8380,
      "##rates": 8381,
      "##zen": 8382,
      "##CA": 8383,
      "##onic": 8384,
      "##edom": 8385,
      "##organ": 8386,
      "##itals": 8387,
      "stem": 8388,
      "##utt": 8389,
      "alien": 8390,
      "##avāda": 8391,
      "##oca": 8392,
      "##uda": 8393,
      "shark": 8394,
      "Chief": 8395,
      "firing": 8396,
      "overw": 8397,
      "partial": 8398,
      "##ensis": 8399,
      "decor": 8400,
      "bright": 8401,
      "1949": 8402,
      "1977": 8403,
      "Isl": 8404,
      "expansion": 8405,
      "department": 8406,
      "pointed": 8407,
      "##aurus": 8408,
      "oppos": 8409,
      "historians": 8410,
      "equal": 8411,
      "Depression": 8412,
      "admitted": 8413,
      "seeing": 8414,
      "facing": 8415,
      "crossed": 8416,
      "regularly": 8417,
      "immediate": 8418,
      "railway": 8419,
      "favorite": 8420,
      "hoped": 8421,
      "constitution": 8422,
      "institutions": 8423,
      "apparent": 8424,
      "alternative": 8425,
      "lbw": 8426,
      "ratings": 8427,
      "documentary": 8428,
      "Norman": 8429,
      "Roger": 8430,
      "expedition": 8431,
      "unusual": 8432,
      "isolated": 8433,
      "citiz": 8434,
      "Lennon": 8435,
      "07": 8436,
      "63": 8437,
      "Ald": 8438,
      "Dur": 8439,
      "Disc": 8440,
      "Fern": 8441,
      "Goffman": 8442,
      "Person": 8443,
      "eighth": 8444,
      "lap": 8445,
      "mort": 8446,
      "sulf": 8447,
      "##ooth": 8448,
      "##iour": 8449,
      "##wich": 8450,
      "##key": 8451,
      "##ívar": 8452,
      "inland": 8453,
      "##aya": 8454,
      "##uses": 8455,
      "##usad": 8456,
      "champion": 8457,
      "trail": 8458,
      "recre": 8459,
      "Unlike": 8460,
      "##formed": 8461,
      "consum": 8462,
      "regional": 8463,
      "assumed": 8464,
      "owner": 8465,
      "designation": 8466,
      "13th": 8467,
      "##ossible": 8468,
      "anniversary": 8469,
      "Hergé": 8470,
      "detail": 8471,
      "protests": 8472,
      "breaking": 8473,
      "reviewer": 8474,
      "marks": 8475,
      "repair": 8476,
      "strongly": 8477,
      "changing": 8478,
      "##ombat": 8479,
      "destroyers": 8480,
      "watch": 8481,
      "treated": 8482,
      "languages": 8483,
      "sequel": 8484,
      "literary": 8485,
      "Territ": 8486,
      "ancest": 8487,
      "examples": 8488,
      "bringing": 8489,
      "Janeiro": 8490,
      "watershed": 8491,
      "Bolívar": 8492,
      "inhabit": 8493,
      "message": 8494,
      "Rhodes": 8495,
      "duties": 8496,
      "romantic": 8497,
      "protagonist": 8498,
      "Saprang": 8499,
      "Kilmer": 8500,
      "franchise": 8501,
      "06": 8502,
      "93": 8503,
      "Bert": 8504,
      "Lanc": 8505,
      "PA": 8506,
      "Pine": 8507,
      "Test": 8508,
      "Tower": 8509,
      "Wimb": 8510,
      "bigg": 8511,
      "sections": 8512,
      "winner": 8513,
      "##iary": 8514,
      "##ses": 8515,
      "##ware": 8516,
      "##erog": 8517,
      "##orters": 8518,
      "##esc": 8519,
      "##elet": 8520,
      "##sta": 8521,
      "##iders": 8522,
      "stadium": 8523,
      "##emet": 8524,
      "##osm": 8525,
      "orchest": 8526,
      "Station": 8527,
      "Story": 8528,
      "Stock": 8529,
      "##iants": 8530,
      "##ogether": 8531,
      "aged": 8532,
      "##prising": 8533,
      "##action": 8534,
      "##eased": 8535,
      "flo": 8536,
      "retreat": 8537,
      "indicated": 8538,
      "meets": 8539,
      "##ekānt": 8540,
      "1983": 8541,
      "##ledon": 8542,
      "airline": 8543,
      "instruct": 8544,
      "Gerard": 8545,
      "Adam": 8546,
      "completion": 8547,
      "Color": 8548,
      "Guy": 8549,
      "##ometric": 8550,
      "detailed": 8551,
      "approved": 8552,
      "1920": 8553,
      "##istered": 8554,
      "##encies": 8555,
      "genre": 8556,
      "coup": 8557,
      "superv": 8558,
      "improve": 8559,
      "engineering": 8560,
      "grey": 8561,
      "Square": 8562,
      "Research": 8563,
      "Lawton": 8564,
      "Jean": 8565,
      "attracted": 8566,
      "BCE": 8567,
      "##onnaissance": 8568,
      "Hearts": 8569,
      "wearing": 8570,
      "specimen": 8571,
      "Burns": 8572,
      "rescue": 8573,
      "Journal": 8574,
      "academic": 8575,
      "eggs": 8576,
      "easily": 8577,
      "Georgia": 8578,
      "Wimbledon": 8579,
      "Bass": 8580,
      "Cook": 8581,
      "Corn": 8582,
      "Mortal": 8583,
      "Neb": 8584,
      "Raj": 8585,
      "Sa": 8586,
      "Sher": 8587,
      "Wolf": 8588,
      "Xe": 8589,
      "bay": 8590,
      "cul": 8591,
      "happy": 8592,
      "lob": 8593,
      "ocean": 8594,
      "poll": 8595,
      "sell": 8596,
      "##mel": 8597,
      "##how": 8598,
      "##urd": 8599,
      "streak": 8600,
      "conqu": 8601,
      "proport": 8602,
      "##eare": 8603,
      "shif": 8604,
      "##oured": 8605,
      "spaces": 8606,
      "##oked": 8607,
      "cloud": 8608,
      "Third": 8609,
      "preced": 8610,
      "flat": 8611,
      "acknow": 8612,
      "accused": 8613,
      "interchange": 8614,
      "coord": 8615,
      "162": 8616,
      "depos": 8617,
      "implement": 8618,
      "starling": 8619,
      "medium": 8620,
      "terminus": 8621,
      "attempting": 8622,
      "surviving": 8623,
      "reading": 8624,
      "catch": 8625,
      "looked": 8626,
      "settled": 8627,
      "inspiration": 8628,
      "practices": 8629,
      "territories": 8630,
      "civilian": 8631,
      "effectively": 8632,
      "Richardson": 8633,
      "traveled": 8634,
      "feeling": 8635,
      "assistant": 8636,
      "Cambridge": 8637,
      "challenge": 8638,
      "Somalia": 8639,
      "Attorney": 8640,
      "encouraged": 8641,
      "adjacent": 8642,
      "agricultural": 8643,
      "ethn": 8644,
      "Admiral": 8645,
      "05": 8646,
      "58": 8647,
      "Bed": 8648,
      "Dark": 8649,
      "Es": 8650,
      "Hor": 8651,
      "Kombat": 8652,
      "Lab": 8653,
      "Now": 8654,
      "Pass": 8655,
      "Sb": 8656,
      "Ton": 8657,
      "et": 8658,
      "none": 8659,
      "nick": 8660,
      "races": 8661,
      "sam": 8662,
      "swe": 8663,
      "tick": 8664,
      "vac": 8665,
      "##dess": 8666,
      "##rig": 8667,
      "##rence": 8668,
      "##yard": 8669,
      "##bie": 8670,
      "##heim": 8671,
      "##itated": 8672,
      "stead": 8673,
      "anth": 8674,
      "##ifer": 8675,
      "##ewhat": 8676,
      "##abled": 8677,
      "orn": 8678,
      "chronic": 8679,
      "plain": 8680,
      "shots": 8681,
      "recalled": 8682,
      "compounds": 8683,
      "serial": 8684,
      "partly": 8685,
      "evil": 8686,
      "##aware": 8687,
      "feather": 8688,
      "accomm": 8689,
      "Aniston": 8690,
      "obtained": 8691,
      "##ennis": 8692,
      "1910": 8693,
      "possession": 8694,
      "visible": 8695,
      "convoy": 8696,
      "stands": 8697,
      "##attered": 8698,
      "Elect": 8699,
      "patron": 8700,
      "1909": 8701,
      "identity": 8702,
      "armor": 8703,
      "Keamy": 8704,
      "multi": 8705,
      "persp": 8706,
      "painted": 8707,
      "brothers": 8708,
      "towers": 8709,
      "Every": 8710,
      "arrangement": 8711,
      "Formula": 8712,
      "Garc": 8713,
      "Castle": 8714,
      "recovered": 8715,
      "extreme": 8716,
      "seemed": 8717,
      "scientific": 8718,
      "candidate": 8719,
      "Commonwealth": 8720,
      "Jesus": 8721,
      "somewhat": 8722,
      "videos": 8723,
      "accommod": 8724,
      "08": 8725,
      "Gun": 8726,
      "Hun": 8727,
      "Hospital": 8728,
      "Joy": 8729,
      "Mic": 8730,
      "Owen": 8731,
      "Tam": 8732,
      "Type": 8733,
      "Ul": 8734,
      "bal": 8735,
      "cens": 8736,
      "erect": 8737,
      "gross": 8738,
      "hip": 8739,
      "hits": 8740,
      "tone": 8741,
      "##yer": 8742,
      "##worth": 8743,
      "##uv": 8744,
      "##SA": 8745,
      "theatre": 8746,
      "##aling": 8747,
      "##isis": 8748,
      "##icate": 8749,
      "##icity": 8750,
      "##entures": 8751,
      "##idae": 8752,
      "##utz": 8753,
      "##thosaurus": 8754,
      "proceed": 8755,
      "exha": 8756,
      "relative": 8757,
      "schem": 8758,
      "##achus": 8759,
      "impl": 8760,
      "Fraser": 8761,
      "fled": 8762,
      "Marines": 8763,
      "teach": 8764,
      "acts": 8765,
      "##annah": 8766,
      "Shakes": 8767,
      "preserved": 8768,
      "Johnston": 8769,
      "estate": 8770,
      "passage": 8771,
      "Conc": 8772,
      "1935": 8773,
      "1931": 8774,
      "1912": 8775,
      "verse": 8776,
      "reduce": 8777,
      "convin": 8778,
      "twelve": 8779,
      "Poland": 8780,
      "footage": 8781,
      "Design": 8782,
      "cycle": 8783,
      "suffering": 8784,
      "Islands": 8785,
      "##stitution": 8786,
      "hosted": 8787,
      "funds": 8788,
      "Arabic": 8789,
      "##iques": 8790,
      "absol": 8791,
      "##going": 8792,
      "FIA": 8793,
      "linked": 8794,
      "controversial": 8795,
      "sculpture": 8796,
      "custom": 8797,
      "basketball": 8798,
      "Plunketts": 8799,
      "Elizabeth": 8800,
      "Germans": 8801,
      "Corythosaurus": 8802,
      "Shakesp": 8803,
      "68": 8804,
      "Bal": 8805,
      "Bark": 8806,
      "DC": 8807,
      "Div": 8808,
      "Dyn": 8809,
      "Gib": 8810,
      "Late": 8811,
      "Mand": 8812,
      "Nintend": 8813,
      "Tig": 8814,
      "Wi": 8815,
      "Your": 8816,
      "cart": 8817,
      "divers": 8818,
      "ow": 8819,
      "sessions": 8820,
      "siege": 8821,
      "tailed": 8822,
      "wars": 8823,
      "##sewhere": 8824,
      "##cement": 8825,
      "##uz": 8826,
      "##bishop": 8827,
      "inaug": 8828,
      "##elin": 8829,
      "##illy": 8830,
      "thin": 8831,
      "##etts": 8832,
      "##oli": 8833,
      "##olay": 8834,
      "stayed": 8835,
      "alleg": 8836,
      "prohib": 8837,
      "shut": 8838,
      "##oven": 8839,
      "income": 8840,
      "context": 8841,
      "integ": 8842,
      "adults": 8843,
      "##amps": 8844,
      "consc": 8845,
      "defended": 8846,
      "##ificial": 8847,
      "continuing": 8848,
      "province": 8849,
      "expensive": 8850,
      "Allah": 8851,
      "attacking": 8852,
      "1932": 8853,
      "reviewers": 8854,
      "destruction": 8855,
      "debate": 8856,
      "equipped": 8857,
      "Palmy": 8858,
      "circulation": 8859,
      "Anton": 8860,
      "steel": 8861,
      "responsibility": 8862,
      "learning": 8863,
      "blocks": 8864,
      "Hotel": 8865,
      "concerned": 8866,
      "moral": 8867,
      "understand": 8868,
      "composer": 8869,
      "verte": 8870,
      "Special": 8871,
      "incorporated": 8872,
      "Protest": 8873,
      "Peninsula": 8874,
      "Marlborough": 8875,
      "opposite": 8876,
      "##erogative": 8877,
      "Shakespeare": 8878,
      "Nintendo": 8879,
      "Ak": 8880,
      "Cle": 8881,
      "Sem": 8882,
      "Sweet": 8883,
      "Techn": 8884,
      "gone": 8885,
      "hem": 8886,
      "map": 8887,
      "pushed": 8888,
      "sight": 8889,
      "##ris": 8890,
      "##pent": 8891,
      "##put": 8892,
      "##yt": 8893,
      "##gie": 8894,
      "##body": 8895,
      "##ét": 8896,
      "##MO": 8897,
      "##onia": 8898,
      "##state": 8899,
      "##otic": 8900,
      "##owing": 8901,
      "##ithic": 8902,
      "##osl": 8903,
      "answ": 8904,
      "shall": 8905,
      "shore": 8906,
      "##aste": 8907,
      "##oster": 8908,
      "Channel": 8909,
      "reserve": 8910,
      "agree": 8911,
      "##arked": 8912,
      "##inals": 8913,
      "songwrit": 8914,
      "consult": 8915,
      "elabor": 8916,
      "musicians": 8917,
      "governor": 8918,
      "Prof": 8919,
      "willing": 8920,
      "1911": 8921,
      "driving": 8922,
      "##scop": 8923,
      "classical": 8924,
      "Flight": 8925,
      "Geoff": 8926,
      "1929": 8927,
      "1921": 8928,
      "lowest": 8929,
      "victims": 8930,
      "limit": 8931,
      "Palace": 8932,
      "promote": 8933,
      "crossing": 8934,
      "meetings": 8935,
      "Media": 8936,
      "falling": 8937,
      "rebels": 8938,
      "measures": 8939,
      "renew": 8940,
      "Fei": 8941,
      "Lawrence": 8942,
      "observations": 8943,
      "Patrick": 8944,
      "voted": 8945,
      "throwing": 8946,
      "##hews": 8947,
      "##iplom": 8948,
      "Stanley": 8949,
      "occasions": 8950,
      "passengers": 8951,
      "remnants": 8952,
      "Construction": 8953,
      "initiative": 8954,
      "Netherlands": 8955,
      "Free": 8956,
      "Hob": 8957,
      "Link": 8958,
      "Labor": 8959,
      "Nar": 8960,
      "Our": 8961,
      "Rain": 8962,
      "Sand": 8963,
      "Treat": 8964,
      "Wic": 8965,
      "craft": 8966,
      "diet": 8967,
      "hang": 8968,
      "ray": 8969,
      "rum": 8970,
      "raise": 8971,
      "ster": 8972,
      "##after": 8973,
      "##fare": 8974,
      "##AT": 8975,
      "##inet": 8976,
      "##acle": 8977,
      "##lev": 8978,
      "##oted": 8979,
      "##otal": 8980,
      "##ownt": 8981,
      "##uting": 8982,
      "comments": 8983,
      "##ifies": 8984,
      "##illed": 8985,
      "##oceratops": 8986,
      "sees": 8987,
      "praise": 8988,
      "retained": 8989,
      "acclaim": 8990,
      "defences": 8991,
      "161": 8992,
      "obl": 8993,
      "objects": 8994,
      "1962": 8995,
      "returns": 8996,
      "1959": 8997,
      "1938": 8998,
      "##quez": 8999,
      "##alky": 9000,
      "Educ": 9001,
      "sky": 9002,
      "involving": 9003,
      "equivalent": 9004,
      "goddess": 9005,
      "Atlanta": 9006,
      "villages": 9007,
      "pitcher": 9008,
      "difficulties": 9009,
      "superior": 9010,
      "strip": 9011,
      "representing": 9012,
      "biography": 9013,
      "Imperial": 9014,
      "Player": 9015,
      "Emperor": 9016,
      "learn": 9017,
      "Queens": 9018,
      "intensified": 9019,
      "purchase": 9020,
      "Pitman": 9021,
      "rhythm": 9022,
      "carrying": 9023,
      "vessels": 9024,
      "Korean": 9025,
      "fixed": 9026,
      "Mega": 9027,
      "Guardian": 9028,
      "batsman": 9029,
      "Cambodia": 9030,
      "global": 9031,
      "unsuccessful": 9032,
      "Stefani": 9033,
      "##emetery": 9034,
      "García": 9035,
      "67": 9036,
      "86": 9037,
      "AP": 9038,
      "Bang": 9039,
      "Cult": 9040,
      "Eric": 9041,
      "Furt": 9042,
      "Pict": 9043,
      "Raff": 9044,
      "Tro": 9045,
      "U2": 9046,
      "bor": 9047,
      "bone": 9048,
      "covers": 9049,
      "fine": 9050,
      "fold": 9051,
      "pow": 9052,
      "tight": 9053,
      "##oh": 9054,
      "##rac": 9055,
      "##pan": 9056,
      "##wald": 9057,
      "##gency": 9058,
      "##inating": 9059,
      "##icop": 9060,
      "##icide": 9061,
      "##elle": 9062,
      "online": 9063,
      "##terbury": 9064,
      "##otton": 9065,
      "##ophy": 9066,
      "##riev": 9067,
      "##iform": 9068,
      "##udes": 9069,
      "exchange": 9070,
      "prol": 9071,
      "##ureau": 9072,
      "cloth": 9073,
      "##rupted": 9074,
      "union": 9075,
      "commit": 9076,
      "committed": 9077,
      "amino": 9078,
      "reveals": 9079,
      "concerts": 9080,
      "simultane": 9081,
      "collaps": 9082,
      "##echism": 9083,
      "Canterbury": 9084,
      "periods": 9085,
      "1920s": 9086,
      "##iterranean": 9087,
      "defeating": 9088,
      "influences": 9089,
      "divisions": 9090,
      "needs": 9091,
      "Mediterranean": 9092,
      "##species": 9093,
      "escort": 9094,
      "Prior": 9095,
      "Enterprise": 9096,
      "accompany": 9097,
      "spirit": 9098,
      "pupp": 9099,
      "narrative": 9100,
      "internal": 9101,
      "camera": 9102,
      "voiced": 9103,
      "behaviour": 9104,
      "Palestine": 9105,
      "Athletic": 9106,
      "Observ": 9107,
      "preferred": 9108,
      "Aerith": 9109,
      "Phillies": 9110,
      "Grammy": 9111,
      "survivors": 9112,
      "resources": 9113,
      "09": 9114,
      "Found": 9115,
      "Hou": 9116,
      "Ken": 9117,
      "Kann": 9118,
      "Má": 9119,
      "Mir": 9120,
      "Mother": 9121,
      "Rugby": 9122,
      "dens": 9123,
      "ju": 9124,
      "rugby": 9125,
      "##math": 9126,
      "##don": 9127,
      "##iy": 9128,
      "##graf": 9129,
      "##ba": 9130,
      "##boy": 9131,
      "##vements": 9132,
      "##err": 9133,
      "##inje": 9134,
      "##arth": 9135,
      "alter": 9136,
      "##chang": 9137,
      "conj": 9138,
      "exit": 9139,
      "##iped": 9140,
      "##ishment": 9141,
      "##raham": 9142,
      "clock": 9143,
      "Along": 9144,
      "Front": 9145,
      "feed": 9146,
      "deck": 9147,
      "formally": 9148,
      "followers": 9149,
      "else": 9150,
      "operating": 9151,
      "Sports": 9152,
      "Plat": 9153,
      "products": 9154,
      "considers": 9155,
      "USD": 9156,
      "Prog": 9157,
      "arrested": 9158,
      "classic": 9159,
      "McG": 9160,
      "refers": 9161,
      "represents": 9162,
      "covering": 9163,
      "criticised": 9164,
      "doesn": 9165,
      "closer": 9166,
      "Championships": 9167,
      "Markgraf": 9168,
      "tribut": 9169,
      "cruiser": 9170,
      "absence": 9171,
      "feelings": 9172,
      "visitors": 9173,
      "Krak": 9174,
      "normally": 9175,
      "hundreds": 9176,
      "Cathedral": 9177,
      "legislation": 9178,
      "panel": 9179,
      "deployed": 9180,
      "interpret": 9181,
      "dialogue": 9182,
      "proposal": 9183,
      "astronom": 9184,
      "pupils": 9185,
      "kitsune": 9186,
      "Fernand": 9187,
      "Colorado": 9188,
      "Furtado": 9189,
      "Raffles": 9190,
      "Bul": 9191,
      "Bell": 9192,
      "Bath": 9193,
      "Fore": 9194,
      "Hud": 9195,
      "Hok": 9196,
      "Nad": 9197,
      "Nichol": 9198,
      "Satur": 9199,
      "Usta": 9200,
      "Valky": 9201,
      "liber": 9202,
      "option": 9203,
      "pure": 9204,
      "rect": 9205,
      "tank": 9206,
      "##nal": 9207,
      "##rich": 9208,
      "##rine": 9209,
      "##cements": 9210,
      "##hol": 9211,
      "##lec": 9212,
      "##wick": 9213,
      "##burn": 9214,
      "##OK": 9215,
      "##CC": 9216,
      "##inally": 9217,
      "##ashed": 9218,
      "##otype": 9219,
      "stable": 9220,
      "deem": 9221,
      "orb": 9222,
      "choir": 9223,
      "prerogative": 9224,
      "##ishn": 9225,
      "reconnaissance": 9226,
      "enth": 9227,
      "appropri": 9228,
      "manusc": 9229,
      "Comb": 9230,
      "forming": 9231,
      "Sholay": 9232,
      "166": 9233,
      "extent": 9234,
      "##ullen": 9235,
      "annually": 9236,
      "140": 9237,
      "convection": 9238,
      "trading": 9239,
      "##shore": 9240,
      "skull": 9241,
      "infrast": 9242,
      "biographer": 9243,
      "poorly": 9244,
      "stationed": 9245,
      "satisf": 9246,
      "ensure": 9247,
      "moments": 9248,
      "spiritual": 9249,
      "drums": 9250,
      "displays": 9251,
      "muscaria": 9252,
      "##onomy": 9253,
      "Dominican": 9254,
      "NHL": 9255,
      "researchers": 9256,
      "submarine": 9257,
      "reconstruction": 9258,
      "DAG": 9259,
      "illeg": 9260,
      "overwhel": 9261,
      "Ustaš": 9262,
      "Bat": 9263,
      "Cape": 9264,
      "Dor": 9265,
      "Jenn": 9266,
      "Pan": 9267,
      "Rom": 9268,
      "dream": 9269,
      "dinosaur": 9270,
      "jun": 9271,
      "lose": 9272,
      "lists": 9273,
      "nav": 9274,
      "saves": 9275,
      "sunk": 9276,
      "wings": 9277,
      "##zac": 9278,
      "##life": 9279,
      "##vati": 9280,
      "##DH": 9281,
      "##inian": 9282,
      "##owiec": 9283,
      "streets": 9284,
      "frame": 9285,
      "##ateau": 9286,
      "orbit": 9287,
      "##rous": 9288,
      "intense": 9289,
      "abund": 9290,
      "Alb": 9291,
      "##ricted": 9292,
      "##eph": 9293,
      "transition": 9294,
      "15th": 9295,
      "1940s": 9296,
      "obst": 9297,
      "extension": 9298,
      "Who": 9299,
      "belt": 9300,
      "Blood": 9301,
      "useful": 9302,
      "modified": 9303,
      "entitled": 9304,
      "driven": 9305,
      "Record": 9306,
      "posted": 9307,
      "influential": 9308,
      "divor": 9309,
      "Corpor": 9310,
      "Richmond": 9311,
      "Maggie": 9312,
      "Mexican": 9313,
      "steam": 9314,
      "injuries": 9315,
      "memory": 9316,
      "withdrew": 9317,
      "FIFA": 9318,
      "understanding": 9319,
      "dramatic": 9320,
      "bombard": 9321,
      "purposes": 9322,
      "essential": 9323,
      "dynasty": 9324,
      "doubt": 9325,
      "util": 9326,
      "##niowiec": 9327,
      "Wiś": 9328,
      "02": 9329,
      "78": 9330,
      "900": 9331,
      "Benn": 9332,
      "CBS": 9333,
      "Holl": 9334,
      "Mach": 9335,
      "Rest": 9336,
      "Sn": 9337,
      "Ut": 9338,
      "VII": 9339,
      "bed": 9340,
      "diplom": 9341,
      "gard": 9342,
      "loyal": 9343,
      "pack": 9344,
      "rated": 9345,
      "rates": 9346,
      "ridge": 9347,
      "saved": 9348,
      "tests": 9349,
      "##zi": 9350,
      "##hang": 9351,
      "##lie": 9352,
      "##ker": 9353,
      "##ori": 9354,
      "##ilst": 9355,
      "ash": 9356,
      "##ctions": 9357,
      "plane": 9358,
      "shipping": 9359,
      "##iang": 9360,
      "spoke": 9361,
      "herd": 9362,
      "enfor": 9363,
      "ago": 9364,
      "otherwise": 9365,
      "##teenth": 9366,
      "Ark": 9367,
      "##ugosl": 9368,
      "writings": 9369,
      "formal": 9370,
      "subspecies": 9371,
      "actual": 9372,
      "interests": 9373,
      "ammun": 9374,
      "Show": 9375,
      "101": 9376,
      "123": 9377,
      "##inson": 9378,
      "severely": 9379,
      "155": 9380,
      "113": 9381,
      "parish": 9382,
      "installed": 9383,
      "generated": 9384,
      "exposure": 9385,
      "helicop": 9386,
      "Parvati": 9387,
      "restrict": 9388,
      "listen": 9389,
      "1928": 9390,
      "engines": 9391,
      "demand": 9392,
      "originated": 9393,
      "excess": 9394,
      "factors": 9395,
      "Federal": 9396,
      "watching": 9397,
      "Township": 9398,
      "crosses": 9399,
      "informed": 9400,
      "burned": 9401,
      "Moore": 9402,
      "materials": 9403,
      "chess": 9404,
      "persu": 9405,
      "##itzer": 9406,
      "Portugal": 9407,
      "Israeli": 9408,
      "##restling": 9409,
      "suggesting": 9410,
      "loan": 9411,
      "Norway": 9412,
      "apparently": 9413,
      "Massachus": 9414,
      "journalist": 9415,
      "happened": 9416,
      "picture": 9417,
      "chairman": 9418,
      "Jacob": 9419,
      "jackrab": 9420,
      "Réunion": 9421,
      "circumstances": 9422,
      "Barker": 9423,
      "Education": 9424,
      "Wiśniowiec": 9425,
      "ammunition": 9426,
      "Massachusetts": 9427,
      "84": 9428,
      "92": 9429,
      "Bab": 9430,
      "Baker": 9431,
      "Cec": 9432,
      "Eaton": 9433,
      "Gen": 9434,
      "Gary": 9435,
      "Gwen": 9436,
      "Hamp": 9437,
      "Having": 9438,
      "Kim": 9439,
      "Kev": 9440,
      "Lith": 9441,
      "Mun": 9442,
      "Roth": 9443,
      "Sid": 9444,
      "Sab": 9445,
      "Yugosl": 9446,
      "bull": 9447,
      "citing": 9448,
      "festival": 9449,
      "ori": 9450,
      "wine": 9451,
      "##ean": 9452,
      "##hist": 9453,
      "##western": 9454,
      "##heera": 9455,
      "##aled": 9456,
      "##ilation": 9457,
      "##urse": 9458,
      "##acter": 9459,
      "##roc": 9460,
      "Intern": 9461,
      "##aku": 9462,
      "##oko": 9463,
      "climate": 9464,
      "resign": 9465,
      "relie": 9466,
      "unlike": 9467,
      "##ryce": 9468,
      "disaster": 9469,
      "partially": 9470,
      "##inder": 9471,
      "movements": 9472,
      "Branch": 9473,
      "paras": 9474,
      "carved": 9475,
      "operate": 9476,
      "generals": 9477,
      "Space": 9478,
      "impossible": 9479,
      "starlings": 9480,
      "Guide": 9481,
      "latex": 9482,
      "McL": 9483,
      "eleven": 9484,
      "phr": 9485,
      "##urricanes": 9486,
      "1927": 9487,
      "causes": 9488,
      "Westm": 9489,
      "victories": 9490,
      "survive": 9491,
      "ready": 9492,
      "Death": 9493,
      "mixture": 9494,
      "predomin": 9495,
      "Minor": 9496,
      "Ministry": 9497,
      "Khand": 9498,
      "burning": 9499,
      "Wilson": 9500,
      "merch": 9501,
      "memorial": 9502,
      "transportation": 9503,
      "##rorist": 9504,
      "layer": 9505,
      "cancer": 9506,
      "administr": 9507,
      "institution": 9508,
      "instruments": 9509,
      "overseas": 9510,
      "thousand": 9511,
      "shells": 9512,
      "behavior": 9513,
      "Historic": 9514,
      "departure": 9515,
      "RAAF": 9516,
      "Swedish": 9517,
      "substantial": 9518,
      "resistance": 9519,
      "##ekāntavāda": 9520,
      "Kannada": 9521,
      "Ustaše": 9522,
      "Az": 9523,
      "Budd": 9524,
      "Bureau": 9525,
      "Celt": 9526,
      "Dig": 9527,
      "Eagle": 9528,
      "Fall": 9529,
[...]
